{
  "version": "1.0",
  "truncation": null,
  "padding": null,
  "added_tokens": [
    {
      "id": 0,
      "content": "||<<||<|pad|>",
      "single_word": false,
      "lstrip": false,
      "rstrip": false,
      "normalized": false,
      "special": true
    },
    {
      "id": 1,
      "content": "||<<||<|unk|>",
      "single_word": false,
      "lstrip": false,
      "rstrip": false,
      "normalized": false,
      "special": true
    },
    {
      "id": 2,
      "content": "||<<||<|bos|>",
      "single_word": false,
      "lstrip": false,
      "rstrip": false,
      "normalized": false,
      "special": true
    },
    {
      "id": 3,
      "content": "||<<||<|eos|>",
      "single_word": false,
      "lstrip": false,
      "rstrip": false,
      "normalized": false,
      "special": true
    }
  ],
  "normalizer": null,
  "pre_tokenizer": {
    "type": "Sequence",
    "pretokenizers": [
      {
        "type": "Whitespace"
      },
      {
        "type": "Punctuation",
        "behavior": "Isolated"
      },
      {
        "type": "Digits",
        "individual_digits": false
      }
    ]
  },
  "post_processor": null,
  "decoder": null,
  "model": {
    "type": "BPE",
    "dropout": null,
    "unk_token": "||<<||<|unk|>",
    "continuing_subword_prefix": null,
    "end_of_word_suffix": null,
    "fuse_unk": false,
    "byte_fallback": false,
    "ignore_merges": false,
    "vocab": {
      "||<<||<|pad|>": 0,
      "||<<||<|unk|>": 1,
      "||<<||<|bos|>": 2,
      "||<<||<|eos|>": 3,
      "!": 4,
      ",": 5,
      ".": 6,
      "0": 7,
      "1": 8,
      "2": 9,
      "3": 10,
      "4": 11,
      "5": 12,
      "6": 13,
      "7": 14,
      "8": 15,
      "9": 16,
      "?": 17,
      "A": 18,
      "B": 19,
      "C": 20,
      "D": 21,
      "E": 22,
      "F": 23,
      "G": 24,
      "H": 25,
      "I": 26,
      "J": 27,
      "K": 28,
      "L": 29,
      "M": 30,
      "N": 31,
      "O": 32,
      "P": 33,
      "Q": 34,
      "R": 35,
      "S": 36,
      "T": 37,
      "U": 38,
      "V": 39,
      "W": 40,
      "X": 41,
      "Y": 42,
      "Z": 43,
      "_": 44,
      "a": 45,
      "b": 46,
      "c": 47,
      "d": 48,
      "e": 49,
      "f": 50,
      "g": 51,
      "h": 52,
      "i": 53,
      "j": 54,
      "k": 55,
      "l": 56,
      "m": 57,
      "n": 58,
      "o": 59,
      "p": 60,
      "q": 61,
      "r": 62,
      "s": 63,
      "t": 64,
      "u": 65,
      "v": 66,
      "w": 67,
      "x": 68,
      "y": 69,
      "z": 70,
      "ª": 71,
      "²": 72,
      "³": 73,
      "µ": 74,
      "¹": 75,
      "À": 76,
      "Á": 77,
      "Â": 78,
      "Ã": 79,
      "Ä": 80,
      "Å": 81,
      "Ç": 82,
      "È": 83,
      "É": 84,
      "Ë": 85,
      "Î": 86,
      "Ï": 87,
      "Ñ": 88,
      "Ò": 89,
      "Õ": 90,
      "Ø": 91,
      "Ù": 92,
      "ß": 93,
      "à": 94,
      "á": 95,
      "â": 96,
      "ã": 97,
      "ä": 98,
      "å": 99,
      "æ": 100,
      "ç": 101,
      "è": 102,
      "é": 103,
      "ê": 104,
      "ë": 105,
      "ì": 106,
      "í": 107,
      "î": 108,
      "ï": 109,
      "ð": 110,
      "ñ": 111,
      "ò": 112,
      "ô": 113,
      "õ": 114,
      "ö": 115,
      "ø": 116,
      "ù": 117,
      "ú": 118,
      "û": 119,
      "ü": 120,
      "þ": 121,
      "ÿ": 122,
      "ā": 123,
      "ă": 124,
      "Ą": 125,
      "Ĉ": 126,
      "Č": 127,
      "č": 128,
      "Ē": 129,
      "ē": 130,
      "Ĕ": 131,
      "ĕ": 132,
      "ė": 133,
      "Ę": 134,
      "ę": 135,
      "ě": 136,
      "Ğ": 137,
      "ğ": 138,
      "Ĥ": 139,
      "ĥ": 140,
      "ħ": 141,
      "ĩ": 142,
      "Ī": 143,
      "ī": 144,
      "Į": 145,
      "į": 146,
      "İ": 147,
      "ı": 148,
      "ĵ": 149,
      "Ķ": 150,
      "ķ": 151,
      "Ĺ": 152,
      "ĺ": 153,
      "Ļ": 154,
      "ľ": 155,
      "Ł": 156,
      "ł": 157,
      "ŋ": 158,
      "Ō": 159,
      "ō": 160,
      "ŏ": 161,
      "Ő": 162,
      "œ": 163,
      "ŕ": 164,
      "Ř": 165,
      "ř": 166,
      "ś": 167,
      "ş": 168,
      "Š": 169,
      "š": 170,
      "Ť": 171,
      "ť": 172,
      "ũ": 173,
      "Ū": 174,
      "ū": 175,
      "Ŵ": 176,
      "ŵ": 177,
      "ŷ": 178,
      "Ÿ": 179,
      "Ž": 180,
      "ž": 181,
      "Ș": 182,
      "ɑ": 183,
      "ə": 184,
      "ɞ": 185,
      "ʚ": 186,
      "α": 187,
      "β": 188,
      "ι": 189,
      "π": 190,
      "ω": 191,
      "ϋ": 192,
      "ϻ": 193,
      "А": 194,
      "Г": 195,
      "К": 196,
      "П": 197,
      "Я": 198,
      "а": 199,
      "в": 200,
      "г": 201,
      "д": 202,
      "е": 203,
      "ж": 204,
      "з": 205,
      "и": 206,
      "к": 207,
      "л": 208,
      "м": 209,
      "н": 210,
      "о": 211,
      "п": 212,
      "р": 213,
      "т": 214,
      "х": 215,
      "ш": 216,
      "ь": 217,
      "я": 218,
      "ѕ": 219,
      "ב": 220,
      "ם": 221,
      "נ": 222,
      "،": 223,
      "؏": 224,
      "ؔ": 225,
      "؛": 226,
      "؜": 227,
      "؟": 228,
      "ء": 229,
      "آ": 230,
      "أ": 231,
      "ؤ": 232,
      "إ": 233,
      "ئ": 234,
      "ا": 235,
      "ب": 236,
      "ة": 237,
      "ت": 238,
      "ث": 239,
      "ج": 240,
      "ح": 241,
      "خ": 242,
      "د": 243,
      "ذ": 244,
      "ر": 245,
      "ز": 246,
      "س": 247,
      "ش": 248,
      "ص": 249,
      "ض": 250,
      "ط": 251,
      "ظ": 252,
      "ع": 253,
      "غ": 254,
      "ـ": 255,
      "ف": 256,
      "ق": 257,
      "ك": 258,
      "ل": 259,
      "م": 260,
      "ن": 261,
      "ه": 262,
      "و": 263,
      "ى": 264,
      "ي": 265,
      "ً": 266,
      "ٌ": 267,
      "ٍ": 268,
      "َ": 269,
      "ُ": 270,
      "ِ": 271,
      "ّ": 272,
      "ْ": 273,
      "ٓ": 274,
      "ٔ": 275,
      "ٕ": 276,
      "ٖ": 277,
      "ٛ": 278,
      "ٞ": 279,
      "٠": 280,
      "١": 281,
      "٢": 282,
      "٣": 283,
      "٤": 284,
      "٥": 285,
      "٦": 286,
      "٧": 287,
      "٨": 288,
      "٩": 289,
      "٪": 290,
      "٫": 291,
      "٬": 292,
      "٭": 293,
      "ٰ": 294,
      "ٱ": 295,
      "ٲ": 296,
      "ٶ": 297,
      "ٸ": 298,
      "ٻ": 299,
      "ٽ": 300,
      "پ": 301,
      "ڄ": 302,
      "څ": 303,
      "چ": 304,
      "ڈ": 305,
      "ډ": 306,
      "ڑ": 307,
      "ڔ": 308,
      "ڕ": 309,
      "ژ": 310,
      "ڙ": 311,
      "ڛ": 312,
      "ڜ": 313,
      "ڝ": 314,
      "ڟ": 315,
      "ڢ": 316,
      "ڤ": 317,
      "ڥ": 318,
      "ڨ": 319,
      "ک": 320,
      "ڪ": 321,
      "ګ": 322,
      "گ": 323,
      "ڰ": 324,
      "ڵ": 325,
      "ڶ": 326,
      "ڸ": 327,
      "ں": 328,
      "ڼ": 329,
      "ھ": 330,
      "ہ": 331,
      "ۂ": 332,
      "ۃ": 333,
      "ۆ": 334,
      "ۉ": 335,
      "ی": 336,
      "ێ": 337,
      "ې": 338,
      "ے": 339,
      "ۓ": 340,
      "۔": 341,
      "ە": 342,
      "ۖ": 343,
      "ۗ": 344,
      "ۙ": 345,
      "ۚ": 346,
      "۝": 347,
      "۞": 348,
      "۟": 349,
      "۠": 350,
      "ۡ": 351,
      "ۢ": 352,
      "ۣ": 353,
      "ۤ": 354,
      "ۥ": 355,
      "ۦ": 356,
      "ۧ": 357,
      "۩": 358,
      "۰": 359,
      "۱": 360,
      "۲": 361,
      "۳": 362,
      "۷": 363,
      "۹": 364,
      "۾": 365,
      "ۿ": 366,
      "ݕ": 367,
      "ݛ": 368,
      "ݣ": 369,
      "ݦ": 370,
      "ݩ": 371,
      "ݪ": 372,
      "ࢪ": 373,
      "ࣰ": 374,
      "ࣲ": 375,
      "७": 376,
      "ঔ": 377,
      "ক": 378,
      "গ": 379,
      "ঘ": 380,
      "ঞ": 381,
      "ট": 382,
      "থ": 383,
      "ন": 384,
      "ষ": 385,
      "হ": 386,
      "ড়": 387,
      "ঢ়": 388,
      "য়": 389,
      "ಥ": 390,
      "ฅ": 391,
      "ง": 392,
      "໒": 393,
      "ཌ": 394,
      "ད": 395,
      "ღ": 396,
      "Ꭰ": 397,
      "Ꭿ": 398,
      "Ꮇ": 399,
      "Ꮤ": 400,
      "Ꮶ": 401,
      "ᗩ": 402,
      "ᗰ": 403,
      "រ": 404,
      "ᴗ": 405,
      "ᴥ": 406,
      "ᴻ": 407,
      "ặ": 408,
      "Ẹ": 409,
      "Ỗ": 410,
      "⁰": 411,
      "⁵": 412,
      "⁸": 413,
      "ℹ": 414,
      "⅗": 415,
      "ال": 416,
      "ان": 417,
      "في": 418,
      "له": 419,
      "لي": 420,
      "لا": 421,
      "نا": 422,
      "الله": 423,
      "يا": 424,
      "بي": 425,
      "ما": 426,
      "را": 427,
      "دي": 428,
      "من": 429,
      "وا": 430,
      "ها": 431,
      "ري": 432,
      "با": 433,
      "ون": 434,
      "ير": 435,
      "ين": 436,
      "الم": 437,
      "عل": 438,
      "كم": 439,
      "تا": 440,
      "ربي": 441,
      "زا": 442,
      "شا": 443,
      "عا": 444,
      "رو": 445,
      "ول": 446,
      "تو": 447,
      "ور": 448,
      "على": 449,
      "خو": 450,
      "ية": 451,
      "الج": 452,
      "رك": 453,
      "دا": 454,
      "صح": 455,
      "هم": 456,
      "يو": 457,
      "سل": 458,
      "كي": 459,
      "حم": 460,
      "علي": 461,
      "كل": 462,
      "مي": 463,
      "هه": 464,
      "فر": 465,
      "تي": 466,
      "ني": 467,
      "تح": 468,
      "كا": 469,
      "الع": 470,
      "انا": 471,
      "يح": 472,
      "لو": 473,
      "الح": 474,
      "جا": 475,
      "الا": 476,
      "مع": 477,
      "قا": 478,
      "رب": 479,
      "خويا": 480,
      "شاء": 481,
      "زائ": 482,
      "نت": 483,
      "لك": 484,
      "ست": 485,
      "يد": 486,
      "ou": 487,
      "رة": 488,
      "عن": 489,
      "ذا": 490,
      "تك": 491,
      "ha": 492,
      "بال": 493,
      "بلا": 494,
      "تع": 495,
      "وي": 496,
      "شك": 497,
      "وال": 498,
      "اني": 499,
      "ديو": 500,
      "يك": 501,
      "مة": 502,
      "تاع": 503,
      "بارك": 504,
      "la": 505,
      "يت": 506,
      "الجزائ": 507,
      "يع": 508,
      "مو": 509,
      "والله": 510,
      "بل": 511,
      "فا": 512,
      "لق": 513,
      "سا": 514,
      "بع": 515,
      "ولا": 516,
      "شو": 517,
      "فيديو": 518,
      "شي": 519,
      "هو": 520,
      "فض": 521,
      "فق": 522,
      "كان": 523,
      "ra": 524,
      "وم": 525,
      "دة": 526,
      "غير": 527,
      "مال": 528,
      "ma": 529,
      "بر": 530,
      "مل": 531,
      "حت": 532,
      "خي": 533,
      "سي": 534,
      "رف": 535,
      "صل": 536,
      "es": 537,
      "او": 538,
      "در": 539,
      "حك": 540,
      "نو": 541,
      "بة": 542,
      "الجزائر": 543,
      "بو": 544,
      "on": 545,
      "لل": 546,
      "هذا": 547,
      "تق": 548,
      "دو": 549,
      "حا": 550,
      "الق": 551,
      "دير": 552,
      "جوا": 553,
      "عة": 554,
      "رج": 555,
      "ch": 556,
      "in": 557,
      "سم": 558,
      "رم": 559,
      "لام": 560,
      "الك": 561,
      "يرحم": 562,
      "لة": 563,
      "فو": 564,
      "فرج": 565,
      "مر": 566,
      "الت": 567,
      "اح": 568,
      "فظ": 569,
      "يق": 570,
      "الس": 571,
      "راك": 572,
      "جواد": 573,
      "حمد": 574,
      "en": 575,
      "ta": 576,
      "انت": 577,
      "مت": 578,
      "بزا": 579,
      "يش": 580,
      "عند": 581,
      "خير": 582,
      "سن": 583,
      "هي": 584,
      "الأ": 585,
      "جي": 586,
      "جب": 587,
      "فضل": 588,
      "حد": 589,
      "أن": 590,
      "جمال": 591,
      "ضحك": 592,
      "الش": 593,
      "an": 594,
      "علا": 595,
      "ناس": 596,
      "يحفظ": 597,
      "مث": 598,
      "هل": 599,
      "نح": 600,
      "سك": 601,
      "li": 602,
      "er": 603,
      "ya": 604,
      "عاش": 605,
      "الي": 606,
      "لم": 607,
      "ضان": 608,
      "سلسل": 609,
      "بصح": 610,
      "بزاف": 611,
      "معا": 612,
      "خا": 613,
      "سلم": 614,
      "طي": 615,
      "يبارك": 616,
      "فيه": 617,
      "رمضان": 618,
      "قل": 619,
      "سب": 620,
      "يوفق": 621,
      "بلاد": 622,
      "الصح": 623,
      "ام": 624,
      "شكون": 625,
      "زي": 626,
      "لع": 627,
      "شوف": 628,
      "بد": 629,
      "مات": 630,
      "re": 631,
      "قت": 632,
      "وج": 633,
      "عم": 634,
      "حة": 635,
      "فيك": 636,
      "ولي": 637,
      "طا": 638,
      "راني": 639,
      "يم": 640,
      "الن": 641,
      "هذ": 642,
      "le": 643,
      "وت": 644,
      "الف": 645,
      "مح": 646,
      "وني": 647,
      "الب": 648,
      "خل": 649,
      "is": 650,
      "ملي": 651,
      "شكرا": 652,
      "دق": 653,
      "بيب": 654,
      "إن": 655,
      "الو": 656,
      "عليه": 657,
      "دم": 658,
      "روح": 659,
      "تش": 660,
      "كث": 661,
      "ته": 662,
      "لح": 663,
      "wa": 664,
      "اب": 665,
      "كن": 666,
      "الص": 667,
      "نة": 668,
      "de": 669,
      "na": 670,
      "توى": 671,
      "عليك": 672,
      "رية": 673,
      "قة": 674,
      "يوفقك": 675,
      "ود": 676,
      "ba": 677,
      "راه": 678,
      "محمد": 679,
      "خر": 680,
      "الد": 681,
      "ti": 682,
      "حتى": 683,
      "واحد": 684,
      "نوري": 685,
      "فيها": 686,
      "لقة": 687,
      "بك": 688,
      "bi": 689,
      "el": 690,
      "اي": 691,
      "زيد": 692,
      "قو": 693,
      "تني": 694,
      "مش": 695,
      "واش": 696,
      "اللهم": 697,
      "ار": 698,
      "اخي": 699,
      "جة": 700,
      "تحيا": 701,
      "كر": 702,
      "به": 703,
      "يس": 704,
      "يل": 705,
      "kh": 706,
      "هنا": 707,
      "sa": 708,
      "رح": 709,
      "di": 710,
      "وش": 711,
      "om": 712,
      "لها": 713,
      "الفيديو": 714,
      "يوس": 715,
      "تس": 716,
      "يحفظك": 717,
      "ماشاء": 718,
      "رائ": 719,
      "نس": 720,
      "سلام": 721,
      "عاشور": 722,
      "افضل": 723,
      "بلي": 724,
      "فة": 725,
      "طيك": 726,
      "نق": 727,
      "لنا": 728,
      "العالم": 729,
      "da": 730,
      "فيق": 731,
      "مان": 732,
      "عد": 733,
      "وح": 734,
      "سان": 735,
      "الصحة": 736,
      "لب": 737,
      "نف": 738,
      "جزائ": 739,
      "كيما": 740,
      "وين": 741,
      "تب": 742,
      "عب": 743,
      "خبيب": 744,
      "نع": 745,
      "قي": 746,
      "يخ": 747,
      "تنا": 748,
      "توفيق": 749,
      "هد": 750,
      "لله": 751,
      "يوم": 752,
      "te": 753,
      "تها": 754,
      "سو": 755,
      "صة": 756,
      "غي": 757,
      "باب": 758,
      "ديرو": 759,
      "عجب": 760,
      "العا": 761,
      "عي": 762,
      "رس": 763,
      "كنت": 764,
      "غرب": 765,
      "باش": 766,
      "كو": 767,
      "كثر": 768,
      "أنا": 769,
      "عو": 770,
      "يعطيك": 771,
      "دين": 772,
      "ja": 773,
      "برك": 774,
      "ri": 775,
      "خص": 776,
      "نتا": 777,
      "ات": 778,
      "كاين": 779,
      "lah": 780,
      "جام": 781,
      "بين": 782,
      "هر": 783,
      "عليكم": 784,
      "تحية": 785,
      "حان": 786,
      "et": 787,
      "فت": 788,
      "زال": 789,
      "ذي": 790,
      "جمي": 791,
      "الط": 792,
      "اع": 793,
      "فهم": 794,
      "معاك": 795,
      "سلسلة": 796,
      "مج": 797,
      "يه": 798,
      "اله": 799,
      "نتفرج": 800,
      "بعد": 801,
      "قبل": 802,
      "راح": 803,
      "مس": 804,
      "نش": 805,
      "me": 806,
      "جد": 807,
      "al": 808,
      "غا": 809,
      "كامل": 810,
      "وس": 811,
      "علم": 812,
      "يارب": 813,
      "خاو": 814,
      "cha": 815,
      "qu": 816,
      "حال": 817,
      "صالح": 818,
      "تت": 819,
      "لى": 820,
      "مثل": 821,
      "اج": 822,
      "الث": 823,
      "وع": 824,
      "كون": 825,
      "سبحان": 826,
      "محتوى": 827,
      "فل": 828,
      "عندي": 829,
      "اللي": 830,
      "وسلم": 831,
      "قنا": 832,
      "ni": 833,
      "fi": 834,
      "رات": 835,
      "رائع": 836,
      "زع": 837,
      "ماشي": 838,
      "or": 839,
      "الخ": 840,
      "يب": 841,
      "روعة": 842,
      "رق": 843,
      "ar": 844,
      "ليك": 845,
      "سط": 846,
      "يتفرج": 847,
      "بط": 848,
      "تل": 849,
      "لكن": 850,
      "هدا": 851,
      "است": 852,
      "رانا": 853,
      "دار": 854,
      "الل": 855,
      "وات": 856,
      "ne": 857,
      "الناس": 858,
      "زم": 859,
      "بلادي": 860,
      "تم": 861,
      "رض": 862,
      "الى": 863,
      "بس": 864,
      "نشوف": 865,
      "اك": 866,
      "les": 867,
      "بن": 868,
      "lo": 869,
      "حنا": 870,
      "تص": 871,
      "طة": 872,
      "اخ": 873,
      "هذه": 874,
      "برا": 875,
      "الجزائري": 876,
      "البا": 877,
      "ro": 878,
      "vi": 879,
      "مرح": 880,
      "اف": 881,
      "قال": 882,
      "هاد": 883,
      "كمل": 884,
      "وك": 885,
      "راء": 886,
      "مم": 887,
      "حلقة": 888,
      "منا": 889,
      "أخي": 890,
      "زوج": 891,
      "هات": 892,
      "علو": 893,
      "بيك": 894,
      "منى": 895,
      "شام": 896,
      "الإ": 897,
      "حاجة": 898,
      "ربية": 899,
      "وب": 900,
      "النوري": 901,
      "fa": 902,
      "روس": 903,
      "ظيم": 904,
      "يات": 905,
      "يج": 906,
      "أح": 907,
      "يكون": 908,
      "بح": 909,
      "تخ": 910,
      "أو": 911,
      "طل": 912,
      "احسن": 913,
      "مسلسل": 914,
      "تر": 915,
      "جل": 916,
      "it": 917,
      "عندك": 918,
      "واصل": 919,
      "عاشر": 920,
      "رين": 921,
      "َّ": 922,
      "مين": 923,
      "اد": 924,
      "بالتوفيق": 925,
      "مق": 926,
      "راهم": 927,
      "يحفض": 928,
      "il": 929,
      "مرحبا": 930,
      "as": 931,
      "غفر": 932,
      "وَ": 933,
      "اس": 934,
      "لود": 935,
      "الر": 936,
      "سيد": 937,
      "ولو": 938,
      "تابع": 939,
      "أفضل": 940,
      "واح": 941,
      "كبي": 942,
      "بلادنا": 943,
      "عرف": 944,
      "ريق": 945,
      "علاه": 946,
      "صوي": 947,
      "لَ": 948,
      "الز": 949,
      "العظيم": 950,
      "خلا": 951,
      "he": 952,
      "تاعك": 953,
      "جزائري": 954,
      "جع": 955,
      "تكون": 956,
      "بلد": 957,
      "المو": 958,
      "صلى": 959,
      "مرة": 960,
      "كيف": 961,
      "قى": 962,
      "تن": 963,
      "كيفا": 964,
      "لازم": 965,
      "يف": 966,
      "طر": 967,
      "هشام": 968,
      "our": 969,
      "ميلود": 970,
      "حيا": 971,
      "ضا": 972,
      "تاهل": 973,
      "حبي": 974,
      "ريم": 975,
      "صا": 976,
      "سة": 977,
      "العاشر": 978,
      "صاح": 979,
      "يرحمك": 980,
      "خاوتي": 981,
      "اسم": 982,
      "مكان": 983,
      "to": 984,
      "حش": 985,
      "وق": 986,
      "رام": 987,
      "ديك": 988,
      "صويلح": 989,
      "ka": 990,
      "دخل": 991,
      "قات": 992,
      "ir": 993,
      "ent": 994,
      "روع": 995,
      "الغ": 996,
      "كاش": 997,
      "دقيوس": 998,
      "hh": 999,
      "يعطي": 1000,
      "الحلقة": 1001,
      "زو": 1002,
      "الحمد": 1003,
      "يدير": 1004,
      "جدي": 1005,
      "تحياتي": 1006,
      "ترك": 1007,
      "لهم": 1008,
      "وأ": 1009,
      "ينة": 1010,
      "لات": 1011,
      "جدا": 1012,
      "طور": 1013,
      "تاج": 1014,
      "فال": 1015,
      "موت": 1016,
      "طول": 1017,
      "نفس": 1018,
      "زاير": 1019,
      "ki": 1020,
      "بت": 1021,
      "نسا": 1022,
      "فلو": 1023,
      "هار": 1024,
      "خرج": 1025,
      "اه": 1026,
      "يقة": 1027,
      "الخير": 1028,
      "انشاء": 1029,
      "ريكا": 1030,
      "زء": 1031,
      "انسان": 1032,
      "عمي": 1033,
      "توب": 1034,
      "ur": 1035,
      "إلى": 1036,
      "زيز": 1037,
      "عين": 1038,
      "عام": 1039,
      "عيد": 1040,
      "المح": 1041,
      "تروس": 1042,
      "وير": 1043,
      "ce": 1044,
      "جو": 1045,
      "يوت": 1046,
      "شباب": 1047,
      "مليون": 1048,
      "عر": 1049,
      "اش": 1050,
      "مزال": 1051,
      "جاح": 1052,
      "علينا": 1053,
      "ورة": 1054,
      "ولة": 1055,
      "بدا": 1056,
      "هذي": 1057,
      "لان": 1058,
      "المغرب": 1059,
      "قد": 1060,
      "سر": 1061,
      "السلام": 1062,
      "وربي": 1063,
      "لايك": 1064,
      "متع": 1065,
      "تكم": 1066,
      "غل": 1067,
      "نان": 1068,
      "se": 1069,
      "خلي": 1070,
      "التي": 1071,
      "ولاد": 1072,
      "mo": 1073,
      "لف": 1074,
      "نية": 1075,
      "هاذ": 1076,
      "مشاء": 1077,
      "عاود": 1078,
      "شابة": 1079,
      "اول": 1080,
      "مام": 1081,
      "لت": 1082,
      "شر": 1083,
      "شحال": 1084,
      "صر": 1085,
      "يوتيو": 1086,
      "حق": 1087,
      "شوفو": 1088,
      "شف": 1089,
      "عجبتني": 1090,
      "si": 1091,
      "ند": 1092,
      "الجنة": 1093,
      "ولد": 1094,
      "سيدنا": 1095,
      "بية": 1096,
      "العالمين": 1097,
      "الذي": 1098,
      "مه": 1099,
      "علاش": 1100,
      "يعطيكم": 1101,
      "بنا": 1102,
      "طو": 1103,
      "نست": 1104,
      "تقول": 1105,
      "نتاع": 1106,
      "قول": 1107,
      "دية": 1108,
      "نحب": 1109,
      "توحش": 1110,
      "فور": 1111,
      "قادة": 1112,
      "أس": 1113,
      "شيء": 1114,
      "تستاهل": 1115,
      "كما": 1116,
      "أنت": 1117,
      "وحد": 1118,
      "الحق": 1119,
      "لكم": 1120,
      "صحا": 1121,
      "lh": 1122,
      "نص": 1123,
      "ing": 1124,
      "يحفظكم": 1125,
      "يرحمو": 1126,
      "be": 1127,
      "ملا": 1128,
      "سلمين": 1129,
      "حل": 1130,
      "روت": 1131,
      "est": 1132,
      "تعرف": 1133,
      "طلع": 1134,
      "ياخويا": 1135,
      "والم": 1136,
      "أج": 1137,
      "كانت": 1138,
      "أم": 1139,
      "علومات": 1140,
      "ve": 1141,
      "قاع": 1142,
      "أي": 1143,
      "مني": 1144,
      "عليها": 1145,
      "kho": 1146,
      "ak": 1147,
      "ولاية": 1148,
      "هك": 1149,
      "زق": 1150,
      "que": 1151,
      "سيا": 1152,
      "gh": 1153,
      "َا": 1154,
      "فقط": 1155,
      "اليوم": 1156,
      "رسول": 1157,
      "بها": 1158,
      "الة": 1159,
      "tion": 1160,
      "رحم": 1161,
      "مرا": 1162,
      "خط": 1163,
      "اخو": 1164,
      "تف": 1165,
      "حي": 1166,
      "يني": 1167,
      "خد": 1168,
      "وما": 1169,
      "قص": 1170,
      "قلي": 1171,
      "يام": 1172,
      "يرة": 1173,
      "نب": 1174,
      "حس": 1175,
      "قري": 1176,
      "نه": 1177,
      "بش": 1178,
      "نيا": 1179,
      "بالله": 1180,
      "قع": 1181,
      "لاة": 1182,
      "لما": 1183,
      "we": 1184,
      "ابوني": 1185,
      "بسك": 1186,
      "والو": 1187,
      "لين": 1188,
      "قتل": 1189,
      "مست": 1190,
      "إلا": 1191,
      "ــ": 1192,
      "يحفضك": 1193,
      "مليح": 1194,
      "شخص": 1195,
      "قوة": 1196,
      "بات": 1197,
      "bon": 1198,
      "اذا": 1199,
      "لوكان": 1200,
      "يعني": 1201,
      "الشعب": 1202,
      "راهو": 1203,
      "مغ": 1204,
      "اص": 1205,
      "au": 1206,
      "vo": 1207,
      "نور": 1208,
      "عاون": 1209,
      "am": 1210,
      "فس": 1211,
      "وه": 1212,
      "يص": 1213,
      "راكم": 1214,
      "راهي": 1215,
      "je": 1216,
      "شعب": 1217,
      "ولك": 1218,
      "ومن": 1219,
      "بار": 1220,
      "وان": 1221,
      "يست": 1222,
      "يشا": 1223,
      "سنة": 1224,
      "خلو": 1225,
      "عش": 1226,
      "جزا": 1227,
      "مشي": 1228,
      "عندنا": 1229,
      "متابع": 1230,
      "زة": 1231,
      "وانا": 1232,
      "نى": 1233,
      "عمل": 1234,
      "ge": 1235,
      "مشا": 1236,
      "القمة": 1237,
      "ليس": 1238,
      "فوور": 1239,
      "قر": 1240,
      "بيا": 1241,
      "اكثر": 1242,
      "زور": 1243,
      "10": 1244,
      "نبي": 1245,
      "العتروس": 1246,
      "رجع": 1247,
      "فرح": 1248,
      "جبني": 1249,
      "حب": 1250,
      "بعض": 1251,
      "مك": 1252,
      "شفت": 1253,
      "غة": 1254,
      "يما": 1255,
      "بزااف": 1256,
      "باه": 1257,
      "خاصة": 1258,
      "عبد": 1259,
      "درت": 1260,
      "ont": 1261,
      "بالضحك": 1262,
      "فطور": 1263,
      "القر": 1264,
      "جيب": 1265,
      "كيفاش": 1266,
      "dé": 1267,
      "مد": 1268,
      "وز": 1269,
      "جر": 1270,
      "فك": 1271,
      "قلت": 1272,
      "جميع": 1273,
      "برافو": 1274,
      "بيه": 1275,
      "زان": 1276,
      "يحب": 1277,
      "ضرب": 1278,
      "الفر": 1279,
      "انو": 1280,
      "صلي": 1281,
      "ِّ": 1282,
      "فان": 1283,
      "وقت": 1284,
      "الما": 1285,
      "هاذي": 1286,
      "دائ": 1287,
      "فية": 1288,
      "هادي": 1289,
      "رد": 1290,
      "ana": 1291,
      "تج": 1292,
      "برو": 1293,
      "ندير": 1294,
      "هُ": 1295,
      "قلبي": 1296,
      "فيكم": 1297,
      "za": 1298,
      "عجبني": 1299,
      "الجزء": 1300,
      "ظر": 1301,
      "طع": 1302,
      "كلمة": 1303,
      "باك": 1304,
      "المن": 1305,
      "ous": 1306,
      "تاني": 1307,
      "راحة": 1308,
      "رونا": 1309,
      "تفرج": 1310,
      "الفي": 1311,
      "جديد": 1312,
      "log": 1313,
      "بالي": 1314,
      "برنا": 1315,
      "ونس": 1316,
      "ment": 1317,
      "تعلي": 1318,
      "َل": 1319,
      "المسلمين": 1320,
      "nd": 1321,
      "السيا": 1322,
      "جح": 1323,
      "فري": 1324,
      "ندي": 1325,
      "اق": 1326,
      "جيت": 1327,
      "كلش": 1328,
      "وعلى": 1329,
      "عندو": 1330,
      "اجمل": 1331,
      "الجزائرية": 1332,
      "توما": 1333,
      "هة": 1334,
      "كار": 1335,
      "كبير": 1336,
      "hi": 1337,
      "نعرف": 1338,
      "هاتك": 1339,
      "آن": 1340,
      "صان": 1341,
      "وار": 1342,
      "ضر": 1343,
      "تحق": 1344,
      "kom": 1345,
      "che": 1346,
      "يط": 1347,
      "انك": 1348,
      "دع": 1349,
      "صو": 1350,
      "بوك": 1351,
      "الرح": 1352,
      "عايش": 1353,
      "يعرف": 1354,
      "نهار": 1355,
      "un": 1356,
      "تاري": 1357,
      "شوية": 1358,
      "rabi": 1359,
      "النجاح": 1360,
      "ولكن": 1361,
      "بصحتك": 1362,
      "قمة": 1363,
      "ممكن": 1364,
      "وصح": 1365,
      "واه": 1366,
      "حاب": 1367,
      "kha": 1368,
      "ولله": 1369,
      "وفي": 1370,
      "خوتي": 1371,
      "قناة": 1372,
      "المس": 1373,
      "مز": 1374,
      "المهم": 1375,
      "وليد": 1376,
      "kou": 1377,
      "عالم": 1378,
      "ئي": 1379,
      "العربية": 1380,
      "امريكا": 1381,
      "مثيل": 1382,
      "تار": 1383,
      "جزائر": 1384,
      "تست": 1385,
      "تبارك": 1386,
      "ذلك": 1387,
      "الرا": 1388,
      "ci": 1389,
      "llah": 1390,
      "رغ": 1391,
      "ليه": 1392,
      "الجزا": 1393,
      "سيقى": 1394,
      "بدع": 1395,
      "العام": 1396,
      "برنامج": 1397,
      "معين": 1398,
      "يقول": 1399,
      "تهم": 1400,
      "لأن": 1401,
      "mi": 1402,
      "us": 1403,
      "لعزيز": 1404,
      "ضع": 1405,
      "الان": 1406,
      "َّ": 1407,
      "ديما": 1408,
      "tu": 1409,
      "المحتوى": 1410,
      "حر": 1411,
      "you": 1412,
      "امين": 1413,
      "يشوف": 1414,
      "توحشنا": 1415,
      "بخ": 1416,
      "زوم": 1417,
      "يجا": 1418,
      "بسكرة": 1419,
      "فيديوهات": 1420,
      "ريد": 1421,
      "المسلسل": 1422,
      "تاريخ": 1423,
      "وص": 1424,
      "يحة": 1425,
      "سمير": 1426,
      "ol": 1427,
      "كلام": 1428,
      "دينة": 1429,
      "محت": 1430,
      "نتمنى": 1431,
      "رائعة": 1432,
      "هاش": 1433,
      "at": 1434,
      "هناك": 1435,
      "مري": 1436,
      "بيها": 1437,
      "لية": 1438,
      "بدون": 1439,
      "صاحبي": 1440,
      "اما": 1441,
      "دقيقة": 1442,
      "وبارك": 1443,
      "شاف": 1444,
      "رمضانية": 1445,
      "يرا": 1446,
      "والا": 1447,
      "جات": 1448,
      "ديا": 1449,
      "كس": 1450,
      "قاد": 1451,
      "and": 1452,
      "ريقة": 1453,
      "لقمان": 1454,
      "ديم": 1455,
      "جعل": 1456,
      "الذ": 1457,
      "المش": 1458,
      "البلاد": 1459,
      "الغرب": 1460,
      "vlog": 1461,
      "دزاير": 1462,
      "مسك": 1463,
      "ai": 1464,
      "الكريم": 1465,
      "tou": 1466,
      "غر": 1467,
      "com": 1468,
      "باد": 1469,
      "كبيرة": 1470,
      "كلم": 1471,
      "أك": 1472,
      "طان": 1473,
      "نعم": 1474,
      "حبيت": 1475,
      "بوني": 1476,
      "نَ": 1477,
      "روحك": 1478,
      "منها": 1479,
      "اهل": 1480,
      "فطوركم": 1481,
      "صحة": 1482,
      "the": 1483,
      "وهر": 1484,
      "ad": 1485,
      "th": 1486,
      "خرى": 1487,
      "انس": 1488,
      "تروح": 1489,
      "مار": 1490,
      "كره": 1491,
      "هذاك": 1492,
      "أحسن": 1493,
      "فع": 1494,
      "خونا": 1495,
      "يدة": 1496,
      "os": 1497,
      "بان": 1498,
      "فيديوهاتك": 1499,
      "الصلاة": 1500,
      "cou": 1501,
      "جاية": 1502,
      "جميل": 1503,
      "هاي": 1504,
      "خدم": 1505,
      "أكثر": 1506,
      "ine": 1507,
      "المج": 1508,
      "dja": 1509,
      "نات": 1510,
      "طريق": 1511,
      "تشوف": 1512,
      "فات": 1513,
      "صانع": 1514,
      "ضي": 1515,
      "خلاص": 1516,
      "oo": 1517,
      "الجمي": 1518,
      "يوفقكم": 1519,
      "يوتيوب": 1520,
      "طن": 1521,
      "عليش": 1522,
      "khou": 1523,
      "مص": 1524,
      "نحن": 1525,
      "وانت": 1526,
      "وكل": 1527,
      "لأ": 1528,
      "مور": 1529,
      "بلال": 1530,
      "ربة": 1531,
      "ماء": 1532,
      "ans": 1533,
      "بنت": 1534,
      "نشوفو": 1535,
      "دائما": 1536,
      "طيب": 1537,
      "جما": 1538,
      "السا": 1539,
      "ke": 1540,
      "راشي": 1541,
      "pe": 1542,
      "لاي": 1543,
      "رت": 1544,
      "يجي": 1545,
      "المشا": 1546,
      "النا": 1547,
      "باطل": 1548,
      "إِ": 1549,
      "هايل": 1550,
      "الوا": 1551,
      "نموت": 1552,
      "الوقت": 1553,
      "كيفاه": 1554,
      "خخ": 1555,
      "نروح": 1556,
      "ونا": 1557,
      "بلاحة": 1558,
      "بغ": 1559,
      "غنية": 1560,
      "وهو": 1561,
      "فيهم": 1562,
      "شيخ": 1563,
      "فديو": 1564,
      "جاي": 1565,
      "خاص": 1566,
      "وهران": 1567,
      "mel": 1568,
      "بِ": 1569,
      "zi": 1570,
      "دت": 1571,
      "خلق": 1572,
      "دينا": 1573,
      "pas": 1574,
      "نتوما": 1575,
      "زعفان": 1576,
      "دور": 1577,
      "تقدر": 1578,
      "لعب": 1579,
      "جلي": 1580,
      "كش": 1581,
      "دام": 1582,
      "الدين": 1583,
      "لاح": 1584,
      "عليهم": 1585,
      "ga": 1586,
      "ربح": 1587,
      "ho": 1588,
      "par": 1589,
      "تمن": 1590,
      "دوك": 1591,
      "زيا": 1592,
      "مون": 1593,
      "كت": 1594,
      "شري": 1595,
      "وميلود": 1596,
      "ثنا": 1597,
      "هادا": 1598,
      "فوق": 1599,
      "مكانش": 1600,
      "وري": 1601,
      "chi": 1602,
      "خاطر": 1603,
      "أع": 1604,
      "قروت": 1605,
      "لكل": 1606,
      "ناة": 1607,
      "بالم": 1608,
      "فنان": 1609,
      "الفا": 1610,
      "dir": 1611,
      "سكن": 1612,
      "بق": 1613,
      "أَ": 1614,
      "صد": 1615,
      "الوح": 1616,
      "hom": 1617,
      "pr": 1618,
      "ره": 1619,
      "لن": 1620,
      "القلب": 1621,
      "دك": 1622,
      "إنسان": 1623,
      "يوتيوبر": 1624,
      "رجال": 1625,
      "تور": 1626,
      "تجي": 1627,
      "طق": 1628,
      "mais": 1629,
      "مازال": 1630,
      "cont": 1631,
      "أخ": 1632,
      "مشترك": 1633,
      "ارواح": 1634,
      "فلسط": 1635,
      "des": 1636,
      "عليا": 1637,
      "شكر": 1638,
      "الكو": 1639,
      "انية": 1640,
      "كري": 1641,
      "فى": 1642,
      "عادة": 1643,
      "ثم": 1644,
      "ذن": 1645,
      "خوك": 1646,
      "اكبر": 1647,
      "للا": 1648,
      "fe": 1649,
      "pour": 1650,
      "روحي": 1651,
      "ديد": 1652,
      "انة": 1653,
      "هاذا": 1654,
      "يضحك": 1655,
      "فيدي": 1656,
      "had": 1657,
      "كومي": 1658,
      "ليل": 1659,
      "تعيش": 1660,
      "الدنيا": 1661,
      "تما": 1662,
      "سمع": 1663,
      "القا": 1664,
      "معليش": 1665,
      "man": 1666,
      "tha": 1667,
      "الصحراء": 1668,
      "وشكرا": 1669,
      "بيع": 1670,
      "tr": 1671,
      "ثر": 1672,
      "فكر": 1673,
      "شهر": 1674,
      "بلة": 1675,
      "حبيبي": 1676,
      "éri": 1677,
      "نشالله": 1678,
      "of": 1679,
      "شة": 1680,
      "مخ": 1681,
      "ina": 1682,
      "عندهم": 1683,
      "su": 1684,
      "مليحة": 1685,
      "ئل": 1686,
      "مدينة": 1687,
      "منك": 1688,
      "الجزائريين": 1689,
      "اروع": 1690,
      "شع": 1691,
      "صراحة": 1692,
      "الية": 1693,
      "مراد": 1694,
      "ye": 1695,
      "الشا": 1696,
      "fr": 1697,
      "تلم": 1698,
      "مَ": 1699,
      "هكا": 1700,
      "العرب": 1701,
      "العمل": 1702,
      "ديرولنا": 1703,
      "مط": 1704,
      "معاكم": 1705,
      "بود": 1706,
      "قف": 1707,
      "وصل": 1708,
      "راق": 1709,
      "لحق": 1710,
      "باس": 1711,
      "for": 1712,
      "ثاني": 1713,
      "يري": 1714,
      "الحل": 1715,
      "دعم": 1716,
      "يرحمه": 1717,
      "تحب": 1718,
      "نقول": 1719,
      "nta": 1720,
      "مْ": 1721,
      "الحيا": 1722,
      "تهدر": 1723,
      "مبارك": 1724,
      "البي": 1725,
      "sah": 1726,
      "vidé": 1727,
      "Ra": 1728,
      "فين": 1729,
      "ليا": 1730,
      "بالك": 1731,
      "nch": 1732,
      "مسا": 1733,
      "فضلك": 1734,
      "صدق": 1735,
      "khoya": 1736,
      "صغير": 1737,
      "عَ": 1738,
      "الاخ": 1739,
      "شه": 1740,
      "ناش": 1741,
      "دراهم": 1742,
      "السل": 1743,
      "vide": 1744,
      "أست": 1745,
      "صدي": 1746,
      "جميلة": 1747,
      "بينا": 1748,
      "ومق": 1749,
      "راس": 1750,
      "زووم": 1751,
      "درو": 1752,
      "معلومات": 1753,
      "تعجبني": 1754,
      "جعفر": 1755,
      "مسكين": 1756,
      "men": 1757,
      "ملاح": 1758,
      "فاء": 1759,
      "rak": 1760,
      "ravo": 1761,
      "اا": 1762,
      "نظ": 1763,
      "المعلومات": 1764,
      "كثيرا": 1765,
      "ذه": 1766,
      "عمر": 1767,
      "بلاصة": 1768,
      "الموسيقى": 1769,
      "ئة": 1770,
      "الحا": 1771,
      "نج": 1772,
      "ممثل": 1773,
      "زل": 1774,
      "مُ": 1775,
      "معايا": 1776,
      "فيد": 1777,
      "نشاله": 1778,
      "دمو": 1779,
      "صمة": 1780,
      "وو": 1781,
      "واع": 1782,
      "المغ": 1783,
      "ation": 1784,
      "lg": 1785,
      "سلا": 1786,
      "نسي": 1787,
      "احت": 1788,
      "ثقا": 1789,
      "فلسطين": 1790,
      "صحاب": 1791,
      "خيرا": 1792,
      "تصوير": 1793,
      "بني": 1794,
      "قار": 1795,
      "إذا": 1796,
      "التعلي": 1797,
      "حسب": 1798,
      "عنا": 1799,
      "بودكا": 1800,
      "وحدة": 1801,
      "خدمة": 1802,
      "مكاش": 1803,
      "فرنسا": 1804,
      "لالا": 1805,
      "التوفيق": 1806,
      "mer": 1807,
      "توا": 1808,
      "زية": 1809,
      "أهل": 1810,
      "بون": 1811,
      "حَ": 1812,
      "زين": 1813,
      "لاق": 1814,
      "هاك": 1815,
      "ركة": 1816,
      "طار": 1817,
      "فه": 1818,
      "تلمسان": 1819,
      "ثة": 1820,
      "ذكر": 1821,
      "مبدع": 1822,
      "تاعي": 1823,
      "يشفي": 1824,
      "واك": 1825,
      "ah": 1826,
      "درا": 1827,
      "حياتي": 1828,
      "حبيب": 1829,
      "باي": 1830,
      "القناة": 1831,
      "إنشاء": 1832,
      "الجا": 1833,
      "قريب": 1834,
      "مقيوس": 1835,
      "bla": 1836,
      "قاسم": 1837,
      "الْ": 1838,
      "سلس": 1839,
      "لقا": 1840,
      "يخبط": 1841,
      "جزء": 1842,
      "صلو": 1843,
      "معك": 1844,
      "لغ": 1845,
      "واد": 1846,
      "العادة": 1847,
      "ji": 1848,
      "جه": 1849,
      "حسا": 1850,
      "زر": 1851,
      "ومقيوس": 1852,
      "ماني": 1853,
      "يَ": 1854,
      "rai": 1855,
      "فلوق": 1856,
      "دات": 1857,
      "نسبة": 1858,
      "قالو": 1859,
      "سما": 1860,
      "صور": 1861,
      "مِ": 1862,
      "يديرو": 1863,
      "اتمنى": 1864,
      "فلة": 1865,
      "زيغ": 1866,
      "الحياة": 1867,
      "بيكم": 1868,
      "المست": 1869,
      "inu": 1870,
      "هكذا": 1871,
      "حط": 1872,
      "لبلاد": 1873,
      "بير": 1874,
      "mou": 1875,
      "حلي": 1876,
      "رحت": 1877,
      "بابا": 1878,
      "ولنا": 1879,
      "جامي": 1880,
      "نك": 1881,
      "saha": 1882,
      "أت": 1883,
      "دل": 1884,
      "بدل": 1885,
      "سف": 1886,
      "سلي": 1887,
      "ياخو": 1888,
      "تَ": 1889,
      "انه": 1890,
      "لينا": 1891,
      "تحت": 1892,
      "بصحتكم": 1893,
      "هدة": 1894,
      "فكرة": 1895,
      "عق": 1896,
      "نها": 1897,
      "خارج": 1898,
      "آخر": 1899,
      "ريو": 1900,
      "نتبع": 1901,
      "عمري": 1902,
      "أص": 1903,
      "أجمل": 1904,
      "ثنائي": 1905,
      "سنط": 1906,
      "قدر": 1907,
      "داي": 1908,
      "هوما": 1909,
      "ليوم": 1910,
      "العزيز": 1911,
      "ay": 1912,
      "mon": 1913,
      "نعاود": 1914,
      "ڨاع": 1915,
      "منين": 1916,
      "ديرلنا": 1917,
      "ئلة": 1918,
      "تعليق": 1919,
      "وصحبه": 1920,
      "بالا": 1921,
      "ذب": 1922,
      "عدد": 1923,
      "ورك": 1924,
      "20": 1925,
      "ليبيا": 1926,
      "راج": 1927,
      "الاول": 1928,
      "بإ": 1929,
      "هدر": 1930,
      "نوع": 1931,
      "رحلة": 1932,
      "الض": 1933,
      "do": 1934,
      "ياو": 1935,
      "سارة": 1936,
      "ran": 1937,
      "طقة": 1938,
      "هِ": 1939,
      "تولي": 1940,
      "دارو": 1941,
      "الفيديوهات": 1942,
      "بَ": 1943,
      "شان": 1944,
      "المع": 1945,
      "آله": 1946,
      "بكم": 1947,
      "دون": 1948,
      "طالب": 1949,
      "منهم": 1950,
      "الحراشي": 1951,
      "lik": 1952,
      "استغفر": 1953,
      "ويجعل": 1954,
      "بودكاست": 1955,
      "rah": 1956,
      "جديدة": 1957,
      "جماعة": 1958,
      "ter": 1959,
      "fo": 1960,
      "صوت": 1961,
      "هدي": 1962,
      "نحبك": 1963,
      "تبع": 1964,
      "القرآن": 1965,
      "حلو": 1966,
      "سلسلات": 1967,
      "درك": 1968,
      "الكا": 1969,
      "ويس": 1970,
      "ادع": 1971,
      "بخير": 1972,
      "نجاح": 1973,
      "باح": 1974,
      "البلد": 1975,
      "بكل": 1976,
      "الجل": 1977,
      "ماي": 1978,
      "جان": 1979,
      "وفق": 1980,
      "الطا": 1981,
      "داية": 1982,
      "معة": 1983,
      "pro": 1984,
      "كريم": 1985,
      "ياا": 1986,
      "khouya": 1987,
      "ختي": 1988,
      "داء": 1989,
      "آمين": 1990,
      "زير": 1991,
      "اوقروت": 1992,
      "العربي": 1993,
      "سوف": 1994,
      "تلي": 1995,
      "شوي": 1996,
      "الضحك": 1997,
      "كلا": 1998,
      "جزائرية": 1999,
      "وها": 2000,
      "رأ": 2001,
      "سبب": 2002,
      "بز": 2003,
      "سور": 2004,
      "موا": 2005,
      "أمريكا": 2006,
      "une": 2007,
      "ضة": 2008,
      "كرة": 2009,
      "عندما": 2010,
      "فهمتش": 2011,
      "أول": 2012,
      "نجي": 2013,
      "منو": 2014,
      "معنا": 2015,
      "فار": 2016,
      "حو": 2017,
      "قتلتني": 2018,
      "wlh": 2019,
      "تينا": 2020,
      "معنى": 2021,
      "كَ": 2022,
      "بلو": 2023,
      "صف": 2024,
      "ريت": 2025,
      "يوسع": 2026,
      "طلب": 2027,
      "رغم": 2028,
      "op": 2029,
      "خلص": 2030,
      "sta": 2031,
      "ياء": 2032,
      "يحفضكم": 2033,
      "قرا": 2034,
      "لخ": 2035,
      "رجل": 2036,
      "حول": 2037,
      "فن": 2038,
      "يعاون": 2039,
      "النبي": 2040,
      "ايا": 2041,
      "يوجد": 2042,
      "تعالى": 2043,
      "دود": 2044,
      "سكر": 2045,
      "video": 2046,
      "wi": 2047,
      "بأ": 2048,
      "ًا": 2049,
      "واج": 2050,
      "ستان": 2051,
      "نستنا": 2052,
      "du": 2053,
      "der": 2054,
      "رايح": 2055,
      "إليه": 2056,
      "ليون": 2057,
      "نوب": 2058,
      "موفق": 2059,
      "توحشناك": 2060,
      "رَ": 2061,
      "تونا": 2062,
      "حمة": 2063,
      "خاوة": 2064,
      "يروح": 2065,
      "té": 2066,
      "ألق": 2067,
      "اغ": 2068,
      "يْ": 2069,
      "بلع": 2070,
      "حياتك": 2071,
      "بروك": 2072,
      "Dja": 2073,
      "إله": 2074,
      "تقدم": 2075,
      "الشباب": 2076,
      "يهدر": 2077,
      "نديل": 2078,
      "ink": 2079,
      "معاه": 2080,
      "صاحب": 2081,
      "continu": 2082,
      "ملك": 2083,
      "hand": 2084,
      "سيدي": 2085,
      "ده": 2086,
      "شويا": 2087,
      "ِّ": 2088,
      "داير": 2089,
      "روو": 2090,
      "بضحك": 2091,
      "روف": 2092,
      "الجزاء": 2093,
      "الغربة": 2094,
      "حية": 2095,
      "فكا": 2096,
      "الوحيد": 2097,
      "الباطل": 2098,
      "ss": 2099,
      "توصل": 2100,
      "جاب": 2101,
      "قناتك": 2102,
      "السلسلة": 2103,
      "قلو": 2104,
      "قسنط": 2105,
      "eri": 2106,
      "زعما": 2107,
      "جرة": 2108,
      "ليكم": 2109,
      "طيف": 2110,
      "mn": 2111,
      "العين": 2112,
      "ديرنا": 2113,
      "تونس": 2114,
      "توش": 2115,
      "صلح": 2116,
      "قلب": 2117,
      "wed": 2118,
      "ستا": 2119,
      "عندها": 2120,
      "نبينا": 2121,
      "تراك": 2122,
      "وة": 2123,
      "aw": 2124,
      "فلا": 2125,
      "موه": 2126,
      "الثالث": 2127,
      "الجزاير": 2128,
      "وليت": 2129,
      "الثاني": 2130,
      "أما": 2131,
      "مف": 2132,
      "هيا": 2133,
      "وض": 2134,
      "زيون": 2135,
      "va": 2136,
      "جال": 2137,
      "شفي": 2138,
      "ظة": 2139,
      "والسلام": 2140,
      "لقطة": 2141,
      "سنين": 2142,
      "علومة": 2143,
      "الظ": 2144,
      "أل": 2145,
      "بلادك": 2146,
      "السياحة": 2147,
      "التح": 2148,
      "ديت": 2149,
      "allah": 2150,
      "عار": 2151,
      "لقيت": 2152,
      "قس": 2153,
      "ek": 2154,
      "قنديل": 2155,
      "مزيد": 2156,
      "فيلم": 2157,
      "بجاية": 2158,
      "المنا": 2159,
      "أستغفر": 2160,
      "نسية": 2161,
      "so": 2162,
      "tes": 2163,
      "تزيد": 2164,
      "صَل": 2165,
      "فعل": 2166,
      "المون": 2167,
      "حمده": 2168,
      "تمثيل": 2169,
      "né": 2170,
      "يرزق": 2171,
      "المزيد": 2172,
      "الباك": 2173,
      "اليوتيوب": 2174,
      "كانو": 2175,
      "سينا": 2176,
      "كريمو": 2177,
      "Ma": 2178,
      "طريقة": 2179,
      "نْ": 2180,
      "انات": 2181,
      "لقى": 2182,
      "ille": 2183,
      "لفيديو": 2184,
      "mal": 2185,
      "مَّ": 2186,
      "وهذا": 2187,
      "يلي": 2188,
      "كلمات": 2189,
      "جليزية": 2190,
      "نتي": 2191,
      "باين": 2192,
      "شاهد": 2193,
      "صحيح": 2194,
      "فاهم": 2195,
      "مثلين": 2196,
      "no": 2197,
      "شالله": 2198,
      "صوير": 2199,
      "طب": 2200,
      "هايلة": 2201,
      "حرام": 2202,
      "رواح": 2203,
      "شغل": 2204,
      "مير": 2205,
      "rage": 2206,
      "بره": 2207,
      "ving": 2208,
      "ائ": 2209,
      "بري": 2210,
      "رى": 2211,
      "انيا": 2212,
      "بيل": 2213,
      "لقد": 2214,
      "هداك": 2215,
      "أجمعين": 2216,
      "الجلفة": 2217,
      "hou": 2218,
      "دولة": 2219,
      "ومون": 2220,
      "30": 2221,
      "pink": 2222,
      "12": 2223,
      "اخر": 2224,
      "واس": 2225,
      "يحط": 2226,
      "تاعو": 2227,
      "الطريق": 2228,
      "md": 2229,
      "رووعة": 2230,
      "ver": 2231,
      "اء": 2232,
      "حكا": 2233,
      "دوا": 2234,
      "بكري": 2235,
      "العاصمة": 2236,
      "vrai": 2237,
      "ثير": 2238,
      "يوتوب": 2239,
      "عيب": 2240,
      "ant": 2241,
      "vidéo": 2242,
      "كتب": 2243,
      "يُ": 2244,
      "sur": 2245,
      "ترج": 2246,
      "كيت": 2247,
      "عربي": 2248,
      "يي": 2249,
      "ايه": 2250,
      "اختي": 2251,
      "تد": 2252,
      "شرف": 2253,
      "صلاة": 2254,
      "نضحك": 2255,
      "عادي": 2256,
      "ساعة": 2257,
      "nt": 2258,
      "تضحك": 2259,
      "مبروك": 2260,
      "con": 2261,
      "ابو": 2262,
      "لاه": 2263,
      "تلف": 2264,
      "يمكن": 2265,
      "تلقا": 2266,
      "موتي": 2267,
      "كثير": 2268,
      "طبي": 2269,
      "ينك": 2270,
      "الاسلام": 2271,
      "راست": 2272,
      "مرض": 2273,
      "Ya": 2274,
      "مهم": 2275,
      "وليس": 2276,
      "lou": 2277,
      "po": 2278,
      "ؤال": 2279,
      "هما": 2280,
      "رار": 2281,
      "بعيد": 2282,
      "15": 2283,
      "ré": 2284,
      "ère": 2285,
      "ياك": 2286,
      "ضيع": 2287,
      "نَا": 2288,
      "كملو": 2289,
      "العيد": 2290,
      "tik": 2291,
      "نوات": 2292,
      "كيل": 2293,
      "ire": 2294,
      "mes": 2295,
      "tre": 2296,
      "عت": 2297,
      "يفرج": 2298,
      "خيرة": 2299,
      "عيدكم": 2300,
      "مرو": 2301,
      "وية": 2302,
      "فيا": 2303,
      "rani": 2304,
      "تخرج": 2305,
      "تسا": 2306,
      "جنة": 2307,
      "كنا": 2308,
      "ودة": 2309,
      "يز": 2310,
      "ريب": 2311,
      "الإسلام": 2312,
      "ab": 2313,
      "عندكم": 2314,
      "Alg": 2315,
      "جنا": 2316,
      "نن": 2317,
      "رحمة": 2318,
      "pl": 2319,
      "دخ": 2320,
      "طيح": 2321,
      "شيئ": 2322,
      "waving": 2323,
      "ضوع": 2324,
      "لغة": 2325,
      "دوة": 2326,
      "جيجل": 2327,
      "bonne": 2328,
      "خسارة": 2329,
      "هوا": 2330,
      "يجب": 2331,
      "راجل": 2332,
      "كلة": 2333,
      "تخدم": 2334,
      "بالنسبة": 2335,
      "الدعم": 2336,
      "قسنطينة": 2337,
      "سق": 2338,
      "والح": 2339,
      "بداع": 2340,
      "pla": 2341,
      "وله": 2342,
      "حات": 2343,
      "هدرة": 2344,
      "بركا": 2345,
      "continuation": 2346,
      "صنا": 2347,
      "عاء": 2348,
      "qui": 2349,
      "تعب": 2350,
      "اليه": 2351,
      "alg": 2352,
      "بور": 2353,
      "تعلم": 2354,
      "صحراء": 2355,
      "st": 2356,
      "ut": 2357,
      "تلا": 2358,
      "اللغة": 2359,
      "نورمال": 2360,
      "سَ": 2361,
      "اليا": 2362,
      "تحس": 2363,
      "ياربي": 2364,
      "تيك": 2365,
      "نصيحة": 2366,
      "مَا": 2367,
      "زاد": 2368,
      "Sa": 2369,
      "ابن": 2370,
      "bz": 2371,
      "تزور": 2372,
      "فعلا": 2373,
      "ميرا": 2374,
      "kan": 2375,
      "أروع": 2376,
      "البر": 2377,
      "علق": 2378,
      "بلاص": 2379,
      "ترا": 2380,
      "عمال": 2381,
      "Rabi": 2382,
      "وعك": 2383,
      "courage": 2384,
      "sh": 2385,
      "تغ": 2386,
      "هلا": 2387,
      "التصوير": 2388,
      "يشافي": 2389,
      "نفسك": 2390,
      "سطورة": 2391,
      "ca": 2392,
      "دعو": 2393,
      "سعيد": 2394,
      "يزيد": 2395,
      "عاد": 2396,
      "ضحكت": 2397,
      "نعمة": 2398,
      "ex": 2399,
      "توبر": 2400,
      "Hhh": 2401,
      "آه": 2402,
      "حتا": 2403,
      "ورال": 2404,
      "فاش": 2405,
      "خاط": 2406,
      "تبان": 2407,
      "ghir": 2408,
      "فسيح": 2409,
      "بتوفيق": 2410,
      "مؤ": 2411,
      "اليد": 2412,
      "ريف": 2413,
      "نبيل": 2414,
      "عبلة": 2415,
      "فَ": 2416,
      "hadi": 2417,
      "يعجبني": 2418,
      "انتم": 2419,
      "نحي": 2420,
      "ظم": 2421,
      "يفهم": 2422,
      "داك": 2423,
      "يشفيك": 2424,
      "نتفرجو": 2425,
      "go": 2426,
      "الارض": 2427,
      "فش": 2428,
      "يين": 2429,
      "قاء": 2430,
      "رمضانكم": 2431,
      "13": 2432,
      "كتر": 2433,
      "نكون": 2434,
      "lam": 2435,
      "وجه": 2436,
      "bravo": 2437,
      "rou": 2438,
      "تفا": 2439,
      "رش": 2440,
      "روحو": 2441,
      "حن": 2442,
      "راكي": 2443,
      "علابالي": 2444,
      "يبان": 2445,
      "11": 2446,
      "خرا": 2447,
      "اجمعين": 2448,
      "كوميدي": 2449,
      "ux": 2450,
      "خفي": 2451,
      "وزيد": 2452,
      "رجو": 2453,
      "احبك": 2454,
      "الفلو": 2455,
      "end": 2456,
      "تأ": 2457,
      "شاءالله": 2458,
      "تستحق": 2459,
      "يخليك": 2460,
      "اننا": 2461,
      "لَا": 2462,
      "وهم": 2463,
      "الدي": 2464,
      "باغي": 2465,
      "يقدر": 2466,
      "طيبة": 2467,
      "bo": 2468,
      "عط": 2469,
      "مقا": 2470,
      "الفق": 2471,
      "فينا": 2472,
      "الملك": 2473,
      "الاست": 2474,
      "تاعنا": 2475,
      "يهديك": 2476,
      "صَلِّ": 2477,
      "صي": 2478,
      "ميت": 2479,
      "mat": 2480,
      "يشفيه": 2481,
      "عيش": 2482,
      "يخدم": 2483,
      "قناتي": 2484,
      "دخلت": 2485,
      "عايشين": 2486,
      "حاول": 2487,
      "الأخ": 2488,
      "ani": 2489,
      "كورونا": 2490,
      "أسف": 2491,
      "جز": 2492,
      "عات": 2493,
      "اخوك": 2494,
      "دنيا": 2495,
      "المستوى": 2496,
      "شار": 2497,
      "قائ": 2498,
      "صديقي": 2499,
      "تري": 2500,
      "تلك": 2501,
      "شاب": 2502,
      "بول": 2503,
      "جاء": 2504,
      "معاهم": 2505,
      "الحاجة": 2506,
      "em": 2507,
      "سير": 2508,
      "قلة": 2509,
      "والي": 2510,
      "احلى": 2511,
      "رسالة": 2512,
      "ريقيا": 2513,
      "الزين": 2514,
      "بسي": 2515,
      "هاها": 2516,
      "فرحت": 2517,
      "ارحم": 2518,
      "kima": 2519,
      "حفظ": 2520,
      "ريا": 2521,
      "نتاعك": 2522,
      "داد": 2523,
      "ابدا": 2524,
      "عدك": 2525,
      "ويوسع": 2526,
      "ليها": 2527,
      "تاه": 2528,
      "ميم": 2529,
      "ملة": 2530,
      "فلوڨ": 2531,
      "بغيت": 2532,
      "الشي": 2533,
      "باينة": 2534,
      "التمثيل": 2535,
      "نقولك": 2536,
      "فير": 2537,
      "ماز": 2538,
      "دايما": 2539,
      "سكو": 2540,
      "الفن": 2541,
      "ثقافة": 2542,
      "ach": 2543,
      "mil": 2544,
      "اللَّ": 2545,
      "سياحة": 2546,
      "باء": 2547,
      "احب": 2548,
      "أنه": 2549,
      "elle": 2550,
      "تبر": 2551,
      "بلاك": 2552,
      "ضحكتني": 2553,
      "ضح": 2554,
      "يدخل": 2555,
      "الكثير": 2556,
      "ماشاءالله": 2557,
      "استمر": 2558,
      "زن": 2559,
      "لاب": 2560,
      "الأول": 2561,
      "نشوفك": 2562,
      "حسن": 2563,
      "عف": 2564,
      "قدا": 2565,
      "المليون": 2566,
      "40": 2567,
      "الغا": 2568,
      "راها": 2569,
      "ريكان": 2570,
      "روبا": 2571,
      "ميز": 2572,
      "ستر": 2573,
      "ساء": 2574,
      "gra": 2575,
      "يغ": 2576,
      "عارف": 2577,
      "باتنة": 2578,
      "قالك": 2579,
      "متح": 2580,
      "يشو": 2581,
      "بيت": 2582,
      "ميديا": 2583,
      "ديرونا": 2584,
      "ممتع": 2585,
      "جزاك": 2586,
      "تمنراست": 2587,
      "خة": 2588,
      "منه": 2589,
      "ولار": 2590,
      "خلاق": 2591,
      "قلية": 2592,
      "ديالك": 2593,
      "الجاي": 2594,
      "الفديو": 2595,
      "فهمت": 2596,
      "عشور": 2597,
      "ed": 2598,
      "son": 2599,
      "الآ": 2600,
      "بيبة": 2601,
      "المص": 2602,
      "الات": 2603,
      "الاش": 2604,
      "طاقة": 2605,
      "قتلني": 2606,
      "غالط": 2607,
      "ميزان": 2608,
      "min": 2609,
      "ncha": 2610,
      "حبس": 2611,
      "وغ": 2612,
      "koum": 2613,
      "فيديوا": 2614,
      "طوي": 2615,
      "طلق": 2616,
      "للق": 2617,
      "هور": 2618,
      "dek": 2619,
      "سد": 2620,
      "كتا": 2621,
      "يرحمها": 2622,
      "شفتو": 2623,
      "vous": 2624,
      "عبة": 2625,
      "والع": 2626,
      "لماذا": 2627,
      "غالب": 2628,
      "لج": 2629,
      "mar": 2630,
      "يجابية": 2631,
      "ذهب": 2632,
      "dz": 2633,
      "مسلم": 2634,
      "الأرض": 2635,
      "top": 2636,
      "بخبخ": 2637,
      "merci": 2638,
      "يعاونك": 2639,
      "حصة": 2640,
      "بوش": 2641,
      "ألف": 2642,
      "عربية": 2643,
      "خطرة": 2644,
      "bou": 2645,
      "الوال": 2646,
      "راي": 2647,
      "rek": 2648,
      "أش": 2649,
      "تفهم": 2650,
      "عه": 2651,
      "هدرو": 2652,
      "اسمها": 2653,
      "الانسان": 2654,
      "وفقك": 2655,
      "فتح": 2656,
      "يار": 2657,
      "ونسي": 2658,
      "للجزائر": 2659,
      "اقسم": 2660,
      "tra": 2661,
      "بسم": 2662,
      "قصة": 2663,
      "محا": 2664,
      "ماكان": 2665,
      "بالع": 2666,
      "تشو": 2667,
      "زمن": 2668,
      "عمو": 2669,
      "لس": 2670,
      "ناء": 2671,
      "كلامك": 2672,
      "تدخل": 2673,
      "يمثل": 2674,
      "التق": 2675,
      "منطقة": 2676,
      "فوت": 2677,
      "هذيك": 2678,
      "أكبر": 2679,
      "تاكل": 2680,
      "الشخص": 2681,
      "مثال": 2682,
      "co": 2683,
      "تان": 2684,
      "ريين": 2685,
      "كاس": 2686,
      "الكلام": 2687,
      "مثلا": 2688,
      "يهدي": 2689,
      "ندو": 2690,
      "نديرو": 2691,
      "ريس": 2692,
      "ونة": 2693,
      "كيد": 2694,
      "ens": 2695,
      "التعليق": 2696,
      "Ha": 2697,
      "tch": 2698,
      "تجا": 2699,
      "دمة": 2700,
      "هلك": 2701,
      "هادو": 2702,
      "رير": 2703,
      "المق": 2704,
      "بعث": 2705,
      "السيد": 2706,
      "نفهم": 2707,
      "الحلقات": 2708,
      "صام": 2709,
      "لناس": 2710,
      "كلشي": 2711,
      "تفكر": 2712,
      "مريض": 2713,
      "عود": 2714,
      "المرة": 2715,
      "احنا": 2716,
      "per": 2717,
      "وف": 2718,
      "ودو": 2719,
      "الشيخ": 2720,
      "ريح": 2721,
      "نتمن": 2722,
      "wad": 2723,
      "ps": 2724,
      "كلي": 2725,
      "وط": 2726,
      "يتي": 2727,
      "يجيب": 2728,
      "وتق": 2729,
      "ياخي": 2730,
      "هود": 2731,
      "نحس": 2732,
      "حقا": 2733,
      "الجديد": 2734,
      "حمان": 2735,
      "معسكر": 2736,
      "حكم": 2737,
      "يوي": 2738,
      "lek": 2739,
      "نحبكم": 2740,
      "jour": 2741,
      "lna": 2742,
      "اخرى": 2743,
      "يدي": 2744,
      "سنوات": 2745,
      "نحوس": 2746,
      "نشر": 2747,
      "مشك": 2748,
      "وهي": 2749,
      "نحبو": 2750,
      "تشبه": 2751,
      "فيهاش": 2752,
      "رقم": 2753,
      "يشافيه": 2754,
      "oom": 2755,
      "ça": 2756,
      "الباجي": 2757,
      "سيناريو": 2758,
      "برهان": 2759,
      "حوا": 2760,
      "قالت": 2761,
      "مصر": 2762,
      "نر": 2763,
      "يولي": 2764,
      "ويع": 2765,
      "Allah": 2766,
      "دد": 2767,
      "قَ": 2768,
      "نض": 2769,
      "المي": 2770,
      "فامي": 2771,
      "مشكل": 2772,
      "شبع": 2773,
      "طيع": 2774,
      "لكي": 2775,
      "العلم": 2776,
      "منكم": 2777,
      "شارك": 2778,
      "قاو": 2779,
      "مولاي": 2780,
      "للأسف": 2781,
      "yah": 2782,
      "الرحمن": 2783,
      "غرداية": 2784,
      "ثلا": 2785,
      "موس": 2786,
      "fait": 2787,
      "باكستان": 2788,
      "كُ": 2789,
      "جوز": 2790,
      "لانو": 2791,
      "رنا": 2792,
      "زيك": 2793,
      "واب": 2794,
      "للم": 2795,
      "يخرج": 2796,
      "غادي": 2797,
      "سين": 2798,
      "الرسول": 2799,
      "راحت": 2800,
      "المؤ": 2801,
      "نسيت": 2802,
      "وحدو": 2803,
      "14": 2804,
      "فارس": 2805,
      "pa": 2806,
      "دث": 2807,
      "لدي": 2808,
      "واق": 2809,
      "ريك": 2810,
      "ورحمة": 2811,
      "ساج": 2812,
      "يقولو": 2813,
      "قليل": 2814,
      "ywa": 2815,
      "ماهو": 2816,
      "همش": 2817,
      "يقتل": 2818,
      "قالها": 2819,
      "قسيك": 2820,
      "خرة": 2821,
      "شم": 2822,
      "غرام": 2823,
      "التاريخ": 2824,
      "ليست": 2825,
      "الاس": 2826,
      "قلبك": 2827,
      "قوبة": 2828,
      "نعيش": 2829,
      "إسم": 2830,
      "زمان": 2831,
      "يتو": 2832,
      "خوكم": 2833,
      "الوطن": 2834,
      "bien": 2835,
      "يجعل": 2836,
      "وحدك": 2837,
      "حسنا": 2838,
      "00": 2839,
      "نخدم": 2840,
      "واط": 2841,
      "تاوعك": 2842,
      "ولات": 2843,
      "dar": 2844,
      "اللّ": 2845,
      "مشاهدة": 2846,
      "بركاته": 2847,
      "وكي": 2848,
      "المورال": 2849,
      "بليز": 2850,
      "مستوى": 2851,
      "mu": 2852,
      "جزي": 2853,
      "حبة": 2854,
      "الكلمة": 2855,
      "الشر": 2856,
      "صائ": 2857,
      "غلط": 2858,
      "ts": 2859,
      "اين": 2860,
      "كلها": 2861,
      "العلي": 2862,
      "الرجال": 2863,
      "باقي": 2864,
      "يستاهل": 2865,
      "احترا": 2866,
      "ali": 2867,
      "بما": 2868,
      "يلعب": 2869,
      "راو": 2870,
      "واو": 2871,
      "وبحمده": 2872,
      "عدة": 2873,
      "يطلع": 2874,
      "مازيغ": 2875,
      "معي": 2876,
      "حلمي": 2877,
      "مغربي": 2878,
      "عَلَ": 2879,
      "ادا": 2880,
      "سنت": 2881,
      "hada": 2882,
      "السعو": 2883,
      "فتخر": 2884,
      "érie": 2885,
      "16": 2886,
      "نقدر": 2887,
      "tni": 2888,
      "ايام": 2889,
      "تنس": 2890,
      "رْ": 2891,
      "ِي": 2892,
      "شابين": 2893,
      "nes": 2894,
      "نخ": 2895,
      "هرة": 2896,
      "ڨروت": 2897,
      "ليما": 2898,
      "بلادكم": 2899,
      "الواقع": 2900,
      "id": 2901,
      "رزق": 2902,
      "مض": 2903,
      "العل": 2904,
      "منش": 2905,
      "ويشفي": 2906,
      "الدولة": 2907,
      "زوجة": 2908,
      "ac": 2909,
      "ep": 2910,
      "تمع": 2911,
      "يطول": 2912,
      "تتفرج": 2913,
      "نورم": 2914,
      "إِلَ": 2915,
      "حبيبنا": 2916,
      "دولار": 2917,
      "رني": 2918,
      "ويرحم": 2919,
      "انها": 2920,
      "سكنه": 2921,
      "حالة": 2922,
      "عرفت": 2923,
      "الكم": 2924,
      "تاذ": 2925,
      "يوتوبر": 2926,
      "wah": 2927,
      "med": 2928,
      "فون": 2929,
      "كات": 2930,
      "التألق": 2931,
      "نسمع": 2932,
      "جدك": 2933,
      "ll": 2934,
      "يدوم": 2935,
      "خلط": 2936,
      "حساب": 2937,
      "عتروس": 2938,
      "نفرح": 2939,
      "تيلي": 2940,
      "عنده": 2941,
      "نبغي": 2942,
      "ave": 2943,
      "أبوني": 2944,
      "فنا": 2945,
      "البو": 2946,
      "معرف": 2947,
      "أق": 2948,
      "خمس": 2949,
      "كْ": 2950,
      "مول": 2951,
      "وإ": 2952,
      "ديس": 2953,
      "ونت": 2954,
      "دٍ": 2955,
      "سطيف": 2956,
      "نسقسيك": 2957,
      "يشافيك": 2958,
      "tout": 2959,
      "ادعولي": 2960,
      "عسلي": 2961,
      "غرا": 2962,
      "وبركاته": 2963,
      "موسيقى": 2964,
      "سيون": 2965,
      "تقد": 2966,
      "هداء": 2967,
      "متعة": 2968,
      "حسيت": 2969,
      "ترجع": 2970,
      "نزور": 2971,
      "توج": 2972,
      "سمى": 2973,
      "عدنا": 2974,
      "zaf": 2975,
      "للاسف": 2976,
      "جناته": 2977,
      "lk": 2978,
      "أمين": 2979,
      "عرب": 2980,
      "داخل": 2981,
      "المسلسلات": 2982,
      "امرة": 2983,
      "هذو": 2984,
      "يخلي": 2985,
      "خرجت": 2986,
      "ue": 2987,
      "تنت": 2988,
      "ينا": 2989,
      "خوف": 2990,
      "حيث": 2991,
      "الذين": 2992,
      "الجزاءر": 2993,
      "شق": 2994,
      "نين": 2995,
      "تحط": 2996,
      "ويسة": 2997,
      "الجميلة": 2998,
      "الكورونا": 2999,
      "فيديوات": 3000,
      "دنا": 3001,
      "يتك": 3002,
      "ماذا": 3003,
      "ماكن": 3004,
      "La": 3005,
      "abon": 3006,
      "nk": 3007,
      "والج": 3008,
      "التو": 3009,
      "الرائع": 3010,
      "روب": 3011,
      "يعجب": 3012,
      "يفتح": 3013,
      "يشوفو": 3014,
      "الخا": 3015,
      "والديك": 3016,
      "حلقات": 3017,
      "مالا": 3018,
      "اللهجة": 3019,
      "تاعكم": 3020,
      "منازع": 3021,
      "الحقيقة": 3022,
      "ès": 3023,
      "عج": 3024,
      "عز": 3025,
      "وكان": 3026,
      "ماش": 3027,
      "هاديك": 3028,
      "كيفي": 3029,
      "يعيش": 3030,
      "ساس": 3031,
      "أنك": 3032,
      "الحقيق": 3033,
      "عون": 3034,
      "تاش": 3035,
      "خوي": 3036,
      "ouf": 3037,
      "مثواه": 3038,
      "المشكل": 3039,
      "25": 3040,
      "bro": 3041,
      "يحم": 3042,
      "سافر": 3043,
      "صلوا": 3044,
      "عمرك": 3045,
      "اصلا": 3046,
      "سؤال": 3047,
      "لِ": 3048,
      "ينج": 3049,
      "الممثل": 3050,
      "فرق": 3051,
      "har": 3052,
      "plus": 3053,
      "17": 3054,
      "إست": 3055,
      "بص": 3056,
      "نتمنا": 3057,
      "ham": 3058,
      "الرحلة": 3059,
      "كة": 3060,
      "بيهم": 3061,
      "بوع": 3062,
      "زيان": 3063,
      "جودة": 3064,
      "pi": 3065,
      "سوا": 3066,
      "يعاود": 3067,
      "راب": 3068,
      "واقع": 3069,
      "الوكيل": 3070,
      "سوء": 3071,
      "ber": 3072,
      "dr": 3073,
      "درون": 3074,
      "التلف": 3075,
      "lm": 3076,
      "هش": 3077,
      "الهم": 3078,
      "تحدي": 3079,
      "rebi": 3080,
      "بإذن": 3081,
      "ck": 3082,
      "dou": 3083,
      "إخو": 3084,
      "سخ": 3085,
      "طيني": 3086,
      "نزيد": 3087,
      "وحنا": 3088,
      "صوالح": 3089,
      "bel": 3090,
      "بب": 3091,
      "خاف": 3092,
      "الفنان": 3093,
      "محتواك": 3094,
      "hna": 3095,
      "تلو": 3096,
      "غار": 3097,
      "لش": 3098,
      "لحم": 3099,
      "هية": 3100,
      "وْ": 3101,
      "هيم": 3102,
      "ly": 3103,
      "yba": 3104,
      "مها": 3105,
      "ونتا": 3106,
      "hak": 3107,
      "الساعة": 3108,
      "النار": 3109,
      "suis": 3110,
      "ترو": 3111,
      "عباد": 3112,
      "ايجا": 3113,
      "حقيقة": 3114,
      "خسر": 3115,
      "رؤ": 3116,
      "شعر": 3117,
      "قولي": 3118,
      "ليش": 3119,
      "صحى": 3120,
      "تحكي": 3121,
      "الحب": 3122,
      "الاف": 3123,
      "سمحلي": 3124,
      "طات": 3125,
      "بِي": 3126,
      "18": 3127,
      "كالعادة": 3128,
      "rk": 3129,
      "تعل": 3130,
      "كين": 3131,
      "هَ": 3132,
      "راد": 3133,
      "موش": 3134,
      "ولايات": 3135,
      "الدول": 3136,
      "عودة": 3137,
      "تصور": 3138,
      "أحبك": 3139,
      "مونتاج": 3140,
      "طفال": 3141,
      "لولا": 3142,
      "قادا": 3143,
      "one": 3144,
      "قيمة": 3145,
      "نساء": 3146,
      "بنات": 3147,
      "res": 3148,
      "ليلة": 3149,
      "المكان": 3150,
      "انيس": 3151,
      "بوس": 3152,
      "دوس": 3153,
      "يرحموا": 3154,
      "رمضانك": 3155,
      "جزائريين": 3156,
      "Mo": 3157,
      "car": 3158,
      "زدق": 3159,
      "الآن": 3160,
      "فرحة": 3161,
      "ويغفر": 3162,
      "تقولي": 3163,
      "يقدرك": 3164,
      "الباسط": 3165,
      "تركيا": 3166,
      "عالمي": 3167,
      "الجاية": 3168,
      "ple": 3169,
      "تدير": 3170,
      "مدر": 3171,
      "لهذا": 3172,
      "وحده": 3173,
      "koun": 3174,
      "ood": 3175,
      "vraiment": 3176,
      "ble": 3177,
      "best": 3178,
      "رزان": 3179,
      "غان": 3180,
      "لاص": 3181,
      "توي": 3182,
      "نتلا": 3183,
      "احد": 3184,
      "ghi": 3185,
      "af": 3186,
      "jb": 3187,
      "zoom": 3188,
      "أخرى": 3189,
      "ويا": 3190,
      "بيض": 3191,
      "راقي": 3192,
      "توها": 3193,
      "وراني": 3194,
      "الاع": 3195,
      "حابة": 3196,
      "أنس": 3197,
      "الصالح": 3198,
      "الطبي": 3199,
      "الموسم": 3200,
      "نفسه": 3201,
      "قالي": 3202,
      "يفرح": 3203,
      "الدقيقة": 3204,
      "باع": 3205,
      "الحبيبة": 3206,
      "والت": 3207,
      "ايضا": 3208,
      "نقص": 3209,
      "صناع": 3210,
      "متو": 3211,
      "ديث": 3212,
      "باباك": 3213,
      "السفر": 3214,
      "نحو": 3215,
      "تبقى": 3216,
      "هكدا": 3217,
      "رحمه": 3218,
      "زيارة": 3219,
      "غط": 3220,
      "فرو": 3221,
      "نشاء": 3222,
      "السي": 3223,
      "تقبل": 3224,
      "انوري": 3225,
      "wel": 3226,
      "بديت": 3227,
      "خوا": 3228,
      "ويوفقك": 3229,
      "يمة": 3230,
      "الواحد": 3231,
      "19": 3232,
      "صباح": 3233,
      "عَل": 3234,
      "مية": 3235,
      "الموت": 3236,
      "فضلكم": 3237,
      "كوك": 3238,
      "يرزقك": 3239,
      "hk": 3240,
      "برة": 3241,
      "دول": 3242,
      "اللو": 3243,
      "صحبي": 3244,
      "ضحكني": 3245,
      "يويورك": 3246,
      "تلقى": 3247,
      "ثق": 3248,
      "الدار": 3249,
      "البرنامج": 3250,
      "المال": 3251,
      "تاز": 3252,
      "يسترك": 3253,
      "جن": 3254,
      "معلومة": 3255,
      "الهدرة": 3256,
      "انشالله": 3257,
      "لاء": 3258,
      "منذ": 3259,
      "معند": 3260,
      "يتفرجو": 3261,
      "هاذو": 3262,
      "مانيش": 3263,
      "50": 3264,
      "tel": 3265,
      "ul": 3266,
      "فالجزائر": 3267,
      "وخ": 3268,
      "زام": 3269,
      "الام": 3270,
      "النساء": 3271,
      "العالمية": 3272,
      "شخصية": 3273,
      "أني": 3274,
      "اولاد": 3275,
      "لهج": 3276,
      "بارة": 3277,
      "شاموتي": 3278,
      "كلو": 3279,
      "oud": 3280,
      "بلايص": 3281,
      "tal": 3282,
      "كاينة": 3283,
      "السلطان": 3284,
      "تدي": 3285,
      "رآه": 3286,
      "ظهر": 3287,
      "ودي": 3288,
      "ياه": 3289,
      "تهبل": 3290,
      "اخوكم": 3291,
      "nchlh": 3292,
      "صغيرة": 3293,
      "شرة": 3294,
      "هاب": 3295,
      "بلغ": 3296,
      "اليمن": 3297,
      "البحر": 3298,
      "bzf": 3299,
      "cas": 3300,
      "تز": 3301,
      "حلا": 3302,
      "ظا": 3303,
      "مفهمتش": 3304,
      "ماج": 3305,
      "ins": 3306,
      "يشبه": 3307,
      "دايمن": 3308,
      "24": 3309,
      "pu": 3310,
      "tk": 3311,
      "حلم": 3312,
      "طين": 3313,
      "قق": 3314,
      "موح": 3315,
      "نفسي": 3316,
      "يجوز": 3317,
      "آل": 3318,
      "جيع": 3319,
      "سديم": 3320,
      "فلي": 3321,
      "لمي": 3322,
      "الإنسان": 3323,
      "والحمد": 3324,
      "مجرد": 3325,
      "الخدمة": 3326,
      "وصلت": 3327,
      "المونتاج": 3328,
      "Hi": 3329,
      "OU": 3330,
      "fel": 3331,
      "jo": 3332,
      "المين": 3333,
      "مالك": 3334,
      "الجميع": 3335,
      "خفيف": 3336,
      "بالح": 3337,
      "زيت": 3338,
      "كوم": 3339,
      "مسلمين": 3340,
      "ليزوم": 3341,
      "تاح": 3342,
      "السو": 3343,
      "طاب": 3344,
      "يبدا": 3345,
      "يبقى": 3346,
      "الحمدلله": 3347,
      "طولت": 3348,
      "الجميل": 3349,
      "جار": 3350,
      "قام": 3351,
      "سامط": 3352,
      "تحياتنا": 3353,
      "تسليما": 3354,
      "avec": 3355,
      "Bravo": 3356,
      "طلة": 3357,
      "يفر": 3358,
      "فيزا": 3359,
      "كلما": 3360,
      "hab": 3361,
      "الفكرة": 3362,
      "حياة": 3363,
      "جزيلا": 3364,
      "dans": 3365,
      "كول": 3366,
      "وث": 3367,
      "machi": 3368,
      "الصبر": 3369,
      "الدرا": 3370,
      "جميعا": 3371,
      "غاربة": 3372,
      "Djamel": 3373,
      "ومونتار": 3374,
      "ذر": 3375,
      "سمي": 3376,
      "مدا": 3377,
      "يعا": 3378,
      "الدا": 3379,
      "ونعم": 3380,
      "كاميرا": 3381,
      "hal": 3382,
      "بلدي": 3383,
      "tah": 3384,
      "سوق": 3385,
      "الفيدي": 3386,
      "تعليقي": 3387,
      "كارثة": 3388,
      "Ana": 3389,
      "شفاء": 3390,
      "الانت": 3391,
      "ويعا": 3392,
      "tek": 3393,
      "Ta": 3394,
      "sou": 3395,
      "أه": 3396,
      "بقا": 3397,
      "تط": 3398,
      "شئ": 3399,
      "لمن": 3400,
      "سمح": 3401,
      "يسهل": 3402,
      "كيفك": 3403,
      "الغنية": 3404,
      "djamel": 3405,
      "تزوج": 3406,
      "صورة": 3407,
      "َّد": 3408,
      "دلي": 3409,
      "نلقا": 3410,
      "ديمة": 3411,
      "باجي": 3412,
      "dak": 3413,
      "بنادم": 3414,
      "متابعك": 3415,
      "عقلك": 3416,
      "ترجمة": 3417,
      "بسبب": 3418,
      "مرات": 3419,
      "يحبو": 3420,
      "والدي": 3421,
      "khir": 3422,
      "أتمنى": 3423,
      "نهاية": 3424,
      "bl": 3425,
      "شل": 3426,
      "كور": 3427,
      "كبر": 3428,
      "الكل": 3429,
      "شافي": 3430,
      "rad": 3431,
      "ons": 3432,
      "جزايري": 3433,
      "illeur": 3434,
      "ml": 3435,
      "سح": 3436,
      "ظن": 3437,
      "فالقمة": 3438,
      "لد": 3439,
      "الممثلين": 3440,
      "الاغنية": 3441,
      "لكان": 3442,
      "ومزال": 3443,
      "دعوة": 3444,
      "تُ": 3445,
      "عك": 3446,
      "عية": 3447,
      "قعد": 3448,
      "يحكي": 3449,
      "لوب": 3450,
      "الحبيب": 3451,
      "تعمل": 3452,
      "وجمي": 3453,
      "واحدة": 3454,
      "fd": 3455,
      "vis": 3456,
      "خذ": 3457,
      "الها": 3458,
      "الجنه": 3459,
      "يتش": 3460,
      "عيدك": 3461,
      "بغي": 3462,
      "وعا": 3463,
      "وتح": 3464,
      "واعر": 3465,
      "جاز": 3466,
      "تكن": 3467,
      "الليل": 3468,
      "ــل": 3469,
      "فطورك": 3470,
      "im": 3471,
      "up": 3472,
      "أغ": 3473,
      "أف": 3474,
      "جيد": 3475,
      "جود": 3476,
      "معانا": 3477,
      "بطريقة": 3478,
      "شفتها": 3479,
      "نهدر": 3480,
      "عوب": 3481,
      "أيضا": 3482,
      "جزاء": 3483,
      "ui": 3484,
      "حث": 3485,
      "حتي": 3486,
      "صيل": 3487,
      "الفض": 3488,
      "المسا": 3489,
      "حترام": 3490,
      "طاء": 3491,
      "الطبيعة": 3492,
      "دب": 3493,
      "نَّ": 3494,
      "يلا": 3495,
      "راسك": 3496,
      "منتار": 3497,
      "والعا": 3498,
      "fiha": 3499,
      "نبغ": 3500,
      "مُحَ": 3501,
      "البلدان": 3502,
      "اقت": 3503,
      "فز": 3504,
      "هديك": 3505,
      "وناس": 3506,
      "انتي": 3507,
      "haha": 3508,
      "موها": 3509,
      "بعة": 3510,
      "ini": 3511,
      "طيبين": 3512,
      "ارِ": 3513,
      "فكرتني": 3514,
      "نتمنالك": 3515,
      "ada": 3516,
      "جيو": 3517,
      "دن": 3518,
      "صنع": 3519,
      "طفلة": 3520,
      "نيويورك": 3521,
      "وعلاه": 3522,
      "ِين": 3523,
      "ياح": 3524,
      "المسلم": 3525,
      "علاقة": 3526,
      "النهار": 3527,
      "وأتوب": 3528,
      "بداية": 3529,
      "my": 3530,
      "سكان": 3531,
      "نكره": 3532,
      "الخي": 3533,
      "ناجح": 3534,
      "ديدة": 3535,
      "حمَّد": 3536,
      "هيشام": 3537,
      "الشع": 3538,
      "مستر": 3539,
      "ywaf": 3540,
      "بقى": 3541,
      "تين": 3542,
      "شرك": 3543,
      "ضو": 3544,
      "قنوات": 3545,
      "تعطي": 3546,
      "chem": 3547,
      "أحد": 3548,
      "يانوري": 3549,
      "التا": 3550,
      "راجع": 3551,
      "wal": 3552,
      "وَسَ": 3553,
      "بناء": 3554,
      "mli": 3555,
      "لْ": 3556,
      "الموا": 3557,
      "فرحان": 3558,
      "الشرق": 3559,
      "chan": 3560,
      "ملاين": 3561,
      "بِيِّ": 3562,
      "قط": 3563,
      "يرجع": 3564,
      "العائلة": 3565,
      "dj": 3566,
      "don": 3567,
      "جم": 3568,
      "صب": 3569,
      "طفل": 3570,
      "غني": 3571,
      "قولو": 3572,
      "مضان": 3573,
      "سلطان": 3574,
      "الاخير": 3575,
      "تعجب": 3576,
      "نستعرف": 3577,
      "ِّمْ": 3578,
      "اعلم": 3579,
      "ضى": 3580,
      "وصحا": 3581,
      "خوتنا": 3582,
      "صحك": 3583,
      "جابة": 3584,
      "ere": 3585,
      "شكراا": 3586,
      "الصغير": 3587,
      "غاية": 3588,
      "مناطق": 3589,
      "لانه": 3590,
      "kol": 3591,
      "از": 3592,
      "روا": 3593,
      "سبي": 3594,
      "عشر": 3595,
      "روج": 3596,
      "يته": 3597,
      "يتنا": 3598,
      "فقد": 3599,
      "السعادة": 3600,
      "غربة": 3601,
      "hed": 3602,
      "الغالي": 3603,
      "قدرش": 3604,
      "صامط": 3605,
      "bes": 3606,
      "ok": 3607,
      "pp": 3608,
      "حكي": 3609,
      "فلم": 3610,
      "كفا": 3611,
      "مزي": 3612,
      "وبي": 3613,
      "منت": 3614,
      "العصا": 3615,
      "التفا": 3616,
      "بدأ": 3617,
      "تشف": 3618,
      "سبحانك": 3619,
      "نَــ": 3620,
      "نَبِيِّ": 3621,
      "واعرة": 3622,
      "رأي": 3623,
      "يسا": 3624,
      "يحي": 3625,
      "معرو": 3626,
      "ربما": 3627,
      "موضوع": 3628,
      "درجة": 3629,
      "مشروع": 3630,
      "تبون": 3631,
      "bli": 3632,
      "jus": 3633,
      "win": 3634,
      "أين": 3635,
      "تمر": 3636,
      "ثمان": 3637,
      "وغير": 3638,
      "يض": 3639,
      "يخي": 3640,
      "اللقطة": 3641,
      "نولي": 3642,
      "يسمع": 3643,
      "غيبة": 3644,
      "القران": 3645,
      "ــلِّمْ": 3646,
      "وَسَــلِّمْ": 3647,
      "نَبِيِّنَــ": 3648,
      "wla": 3649,
      "حوس": 3650,
      "شوا": 3651,
      "غالي": 3652,
      "فخر": 3653,
      "موال": 3654,
      "ليفيديو": 3655,
      "عنه": 3656,
      "موع": 3657,
      "رفع": 3658,
      "ماتش": 3659,
      "تنجح": 3660,
      "رجعت": 3661,
      "تفرجت": 3662,
      "حما": 3663,
      "سرو": 3664,
      "المر": 3665,
      "قاعد": 3666,
      "سيق": 3667,
      "جبت": 3668,
      "تتكلم": 3669,
      "يجازيك": 3670,
      "أرض": 3671,
      "غز": 3672,
      "نجيب": 3673,
      "الافضل": 3674,
      "والنجاح": 3675,
      "برج": 3676,
      "نساش": 3677,
      "تجربة": 3678,
      "الرحيم": 3679,
      "عالمية": 3680,
      "Algérie": 3681,
      "gi": 3682,
      "جرب": 3683,
      "الإن": 3684,
      "ياريت": 3685,
      "عامة": 3686,
      "تاعهم": 3687,
      "rana": 3688,
      "السنة": 3689,
      "bah": 3690,
      "الطفل": 3691,
      "بلدان": 3692,
      "وقتاش": 3693,
      "kay": 3694,
      "الماء": 3695,
      "صديق": 3696,
      "مُحَمَّ": 3697,
      "ala": 3698,
      "hb": 3699,
      "مدة": 3700,
      "نتو": 3701,
      "يريد": 3702,
      "جاو": 3703,
      "الاح": 3704,
      "علابال": 3705,
      "like": 3706,
      "النص": 3707,
      "البرا": 3708,
      "براهيم": 3709,
      "استاذ": 3710,
      "aime": 3711,
      "are": 3712,
      "tro": 3713,
      "تموت": 3714,
      "ضية": 3715,
      "كله": 3716,
      "ولدي": 3717,
      "النها": 3718,
      "افريقيا": 3719,
      "الكوميديا": 3720,
      "نورمالمو": 3721,
      "ct": 3722,
      "خت": 3723,
      "ذو": 3724,
      "مزا": 3725,
      "مبر": 3726,
      "نز": 3727,
      "نقل": 3728,
      "ديري": 3729,
      "باسكو": 3730,
      "كلنا": 3731,
      "خيل": 3732,
      "بوب": 3733,
      "وَبَ": 3734,
      "اسمع": 3735,
      "مُحَمَّدٍ": 3736,
      "امي": 3737,
      "تتح": 3738,
      "قب": 3739,
      "لامة": 3740,
      "راش": 3741,
      "الحال": 3742,
      "يشة": 3743,
      "إنه": 3744,
      "الخط": 3745,
      "حوايج": 3746,
      "ويح": 3747,
      "مارس": 3748,
      "تحويسة": 3749,
      "تربية": 3750,
      "سه": 3751,
      "نوا": 3752,
      "واضع": 3753,
      "الحجر": 3754,
      "bik": 3755,
      "وسط": 3756,
      "vidéos": 3757,
      "بلعباس": 3758,
      "abonné": 3759,
      "ارِكْ": 3760,
      "إش": 3761,
      "بكي": 3762,
      "رفي": 3763,
      "لون": 3764,
      "التع": 3765,
      "ناه": 3766,
      "راسي": 3767,
      "الصوت": 3768,
      "استمتع": 3769,
      "moi": 3770,
      "مهما": 3771,
      "تمنيت": 3772,
      "جين": 3773,
      "رنت": 3774,
      "شمال": 3775,
      "غريب": 3776,
      "فف": 3777,
      "ُمَّ": 3778,
      "الحم": 3779,
      "تحوس": 3780,
      "امرات": 3781,
      "زورو": 3782,
      "Bon": 3783,
      "مسلسلات": 3784,
      "ندخل": 3785,
      "فيدة": 3786,
      "منعرف": 3787,
      "الجنوب": 3788,
      "يتبع": 3789,
      "بدلو": 3790,
      "وجهك": 3791,
      "وحدي": 3792,
      "ادخل": 3793,
      "تاهلو": 3794,
      "fin": 3795,
      "ئية": 3796,
      "دعاء": 3797,
      "عْ": 3798,
      "عدم": 3799,
      "الدو": 3800,
      "بيين": 3801,
      "تحبو": 3802,
      "نتع": 3803,
      "الكبير": 3804,
      "راكش": 3805,
      "صائح": 3806,
      "وَبَارِكْ": 3807,
      "اذ": 3808,
      "اسطورة": 3809,
      "خالد": 3810,
      "رز": 3811,
      "رُ": 3812,
      "غدوة": 3813,
      "قدم": 3814,
      "يضرب": 3815,
      "الرو": 3816,
      "تووب": 3817,
      "سام": 3818,
      "تقتل": 3819,
      "بابور": 3820,
      "ضاء": 3821,
      "اريد": 3822,
      "تغي": 3823,
      "كذلك": 3824,
      "نسكن": 3825,
      "اليوتوب": 3826,
      "انتا": 3827,
      "المخرج": 3828,
      "يتها": 3829,
      "علابالك": 3830,
      "ابون": 3831,
      "يستحق": 3832,
      "أحب": 3833,
      "هاداك": 3834,
      "سلامي": 3835,
      "ممتعة": 3836,
      "أد": 3837,
      "تكمل": 3838,
      "ضيف": 3839,
      "يث": 3840,
      "يران": 3841,
      "ينت": 3842,
      "العراق": 3843,
      "ربنا": 3844,
      "maz": 3845,
      "عيط": 3846,
      "غاض": 3847,
      "الموضوع": 3848,
      "وانتم": 3849,
      "zid": 3850,
      "البيت": 3851,
      "صرا": 3852,
      "لآ": 3853,
      "وزا": 3854,
      "مافهمتش": 3855,
      "المت": 3856,
      "ركز": 3857,
      "صحبه": 3858,
      "تقري": 3859,
      "tar": 3860,
      "اعرف": 3861,
      "هدات": 3862,
      "حقيق": 3863,
      "متابعة": 3864,
      "المنطقة": 3865,
      "المستقبل": 3866,
      "سبوك": 3867,
      "صبح": 3868,
      "اند": 3869,
      "لهجة": 3870,
      "باذن": 3871,
      "خوياا": 3872,
      "ويسكنه": 3873,
      "بلدية": 3874,
      "فاق": 3875,
      "rab": 3876,
      "ومرح": 3877,
      "رجمة": 3878,
      "عمرو": 3879,
      "اللهمَّ": 3880,
      "سبحانه": 3881,
      "رقد": 3882,
      "دموع": 3883,
      "ثلاث": 3884,
      "ure": 3885,
      "ستي": 3886,
      "لاوي": 3887,
      "الاخيرة": 3888,
      "تكتب": 3889,
      "يتكلم": 3890,
      "درتو": 3891,
      "تقي": 3892,
      "الدراهم": 3893,
      "fik": 3894,
      "التعليقات": 3895,
      "fois": 3896,
      "سُ": 3897,
      "صلا": 3898,
      "صول": 3899,
      "وتحية": 3900,
      "يؤ": 3901,
      "اللح": 3902,
      "باط": 3903,
      "قادر": 3904,
      "يعي": 3905,
      "دوش": 3906,
      "رجة": 3907,
      "رمزي": 3908,
      "السر": 3909,
      "ence": 3910,
      "الأس": 3911,
      "ارض": 3912,
      "اجل": 3913,
      "خدمت": 3914,
      "Je": 3915,
      "ko": 3916,
      "tt": 3917,
      "خبي": 3918,
      "سع": 3919,
      "ولم": 3920,
      "mas": 3921,
      "lem": 3922,
      "دقلة": 3923,
      "مناظر": 3924,
      "beau": 3925,
      "دايرين": 3926,
      "مشكور": 3927,
      "السعودية": 3928,
      "aya": 3929,
      "المرض": 3930,
      "ذاك": 3931,
      "hamed": 3932,
      "هوة": 3933,
      "macha": 3934,
      "سمها": 3935,
      "مجهو": 3936,
      "نستناو": 3937,
      "غانم": 3938,
      "23": 3939,
      "إني": 3940,
      "تلحق": 3941,
      "حْ": 3942,
      "حين": 3943,
      "خرين": 3944,
      "ركم": 3945,
      "طلاق": 3946,
      "قم": 3947,
      "لول": 3948,
      "نمو": 3949,
      "وعلاش": 3950,
      "يأ": 3951,
      "لهُمَّ": 3952,
      "باا": 3953,
      "علىنَبِيِّنَــ": 3954,
      "نيك": 3955,
      "يحف": 3956,
      "ويق": 3957,
      "يكثر": 3958,
      "ane": 3959,
      "يمان": 3960,
      "الثقا": 3961,
      "حلال": 3962,
      "عَلی": 3963,
      "21": 3964,
      "ii": 3965,
      "تكلم": 3966,
      "ذالك": 3967,
      "سية": 3968,
      "الخارج": 3969,
      "ناو": 3970,
      "ونَ": 3971,
      "سيري": 3972,
      "iso": 3973,
      "teur": 3974,
      "vie": 3975,
      "الفردوس": 3976,
      "الفيلم": 3977,
      "يفرحك": 3978,
      "good": 3979,
      "ia": 3980,
      "بكيت": 3981,
      "طرف": 3982,
      "يموت": 3983,
      "روك": 3984,
      "فرنسية": 3985,
      "روعه": 3986,
      "الفرنسية": 3987,
      "ملاحظة": 3988,
      "تث": 3989,
      "جمع": 3990,
      "عله": 3991,
      "عبر": 3992,
      "نط": 3993,
      "ومع": 3994,
      "وأنا": 3995,
      "واتوب": 3996,
      "تحيل": 3997,
      "الاج": 3998,
      "بعين": 3999,
      "حترا": 4000,
      "الشهداء": 4001,
      "بلييز": 4002,
      "شفتك": 4003,
      "ft": 4004,
      "دزي": 4005,
      "فهو": 4006,
      "للي": 4007,
      "ناف": 4008,
      "خلف": 4009,
      "نستنى": 4010,
      "محترم": 4011,
      "قلوبنا": 4012,
      "av": 4013,
      "تعا": 4014,
      "تمثل": 4015,
      "رئ": 4016,
      "رخي": 4017,
      "سفر": 4018,
      "صص": 4019,
      "قه": 4020,
      "يتح": 4021,
      "عائ": 4022,
      "جاه": 4023,
      "معكم": 4024,
      "قاط": 4025,
      "ذات": 4026,
      "الصحه": 4027,
      "تهلا": 4028,
      "ابراهي": 4029,
      "day": 4030,
      "وحدها": 4031,
      "وزير": 4032,
      "هايلين": 4033,
      "حسناتك": 4034,
      "gha": 4035,
      "ima": 4036,
      "lha": 4037,
      "ton": 4038,
      "بهذا": 4039,
      "قسي": 4040,
      "كرا": 4041,
      "وكم": 4042,
      "يلة": 4043,
      "الال": 4044,
      "مافيهاش": 4045,
      "كيك": 4046,
      "taw": 4047,
      "خاوتنا": 4048,
      "اهلا": 4049,
      "الرابع": 4050,
      "شريك": 4051,
      "الوالدين": 4052,
      "22": 4053,
      "js": 4054,
      "جيش": 4055,
      "شَ": 4056,
      "غري": 4057,
      "المتابع": 4058,
      "الحصة": 4059,
      "ساطة": 4060,
      "سيلة": 4061,
      "مرت": 4062,
      "مثالك": 4063,
      "اسمه": 4064,
      "ابراهيم": 4065,
      "اث": 4066,
      "سْ": 4067,
      "صاي": 4068,
      "قطع": 4069,
      "نشا": 4070,
      "وتحيا": 4071,
      "رارة": 4072,
      "lak": 4073,
      "تقوم": 4074,
      "هدف": 4075,
      "الزيت": 4076,
      "ضربة": 4077,
      "يوتيوبرز": 4078,
      "التلفزيون": 4079,
      "ارجو": 4080,
      "ضل": 4081,
      "يغفر": 4082,
      "واا": 4083,
      "المعلومة": 4084,
      "جاوب": 4085,
      "تاعها": 4086,
      "درنا": 4087,
      "يوسف": 4088,
      "شهيد": 4089,
      "ِينَ": 4090,
      "HA": 4091,
      "اون": 4092,
      "ومي": 4093,
      "توك": 4094,
      "يوصل": 4095,
      "تعي": 4096,
      "سات": 4097,
      "حافظ": 4098,
      "أنها": 4099,
      "امُ": 4100,
      "was": 4101,
      "nas": 4102,
      "نقلك": 4103,
      "meilleur": 4104,
      "هاذيك": 4105,
      "خطأ": 4106,
      "نبكي": 4107,
      "الجزايري": 4108,
      "الوحيدة": 4109,
      "سمعت": 4110,
      "صَلِّوَسَــلِّمْ": 4111,
      "عَلَى": 4112,
      "ces": 4113,
      "ff": 4114,
      "جبال": 4115,
      "ُّ": 4116,
      "الّ": 4117,
      "بايل": 4118,
      "روق": 4119,
      "فاد": 4120,
      "incha": 4121,
      "لعبة": 4122,
      "لعقوبة": 4123,
      "الدزاير": 4124,
      "ette": 4125,
      "ينجحك": 4126,
      "LA": 4127,
      "بهم": 4128,
      "تجيب": 4129,
      "غو": 4130,
      "ستغرام": 4131,
      "معاها": 4132,
      "خلال": 4133,
      "ملايين": 4134,
      "تحقق": 4135,
      "شعال": 4136,
      "ماكانش": 4137,
      "yh": 4138,
      "أرواح": 4139,
      "سفير": 4140,
      "صعي": 4141,
      "ضرك": 4142,
      "ولها": 4143,
      "ينجح": 4144,
      "قارة": 4145,
      "ربو": 4146,
      "يمشي": 4147,
      "dire": 4148,
      "دينار": 4149,
      "معناها": 4150,
      "musi": 4151,
      "جبل": 4152,
      "ضيم": 4153,
      "لعام": 4154,
      "وإن": 4155,
      "يدا": 4156,
      "منيش": 4157,
      "العفو": 4158,
      "ربع": 4159,
      "درتش": 4160,
      "cho": 4161,
      "ماتت": 4162,
      "bab": 4163,
      "بطل": 4164,
      "اكس": 4165,
      "تقريبا": 4166,
      "صَلِّوَسَــلِّمْوَبَارِكْ": 4167,
      "ger": 4168,
      "أة": 4169,
      "ابارك": 4170,
      "زينة": 4171,
      "عرض": 4172,
      "عمار": 4173,
      "هدرت": 4174,
      "ورا": 4175,
      "وخاصة": 4176,
      "اليك": 4177,
      "صحح": 4178,
      "انيين": 4179,
      "ديرلي": 4180,
      "التربية": 4181,
      "محمداللهمَّ": 4182,
      "هادف": 4183,
      "اسمو": 4184,
      "this": 4185,
      "علىنَبِيِّنَــامُ": 4186,
      "علىنَبِيِّنَــامُحمَّد": 4187,
      "آلله": 4188,
      "اغنية": 4189,
      "عوا": 4190,
      "نخرج": 4191,
      "ورو": 4192,
      "يصلح": 4193,
      "ليكي": 4194,
      "لوم": 4195,
      "ربك": 4196,
      "oui": 4197,
      "للمليون": 4198,
      "تمشي": 4199,
      "comme": 4200,
      "بالاك": 4201,
      "طبيعة": 4202,
      "الّلهُمَّ": 4203,
      "صَلِّوَسَــلِّمْوَبَارِكْعلىنَبِيِّنَــامُحمَّد": 4204,
      "محمداللهمَّصَلِّوَسَــلِّمْوَبَارِكْعلىنَبِيِّنَــامُحمَّد": 4205,
      "بمعنى": 4206,
      "تلعب": 4207,
      "يكم": 4208,
      "النوع": 4209,
      "الجديدة": 4210,
      "تحسب": 4211,
      "الاغ": 4212,
      "بوها": 4213,
      "ديرش": 4214,
      "سيارة": 4215,
      "اسط": 4216,
      "زرت": 4217,
      "زواج": 4218,
      "صلاح": 4219,
      "كية": 4220,
      "لفا": 4221,
      "مخرج": 4222,
      "هبل": 4223,
      "وتع": 4224,
      "يكمل": 4225,
      "البودكاست": 4226,
      "واصلو": 4227,
      "تحيه": 4228,
      "haja": 4229,
      "ساب": 4230,
      "كانوا": 4231,
      "الفت": 4232,
      "يخدمو": 4233,
      "blad": 4234,
      "رأة": 4235,
      "48": 4236,
      "kon": 4237,
      "آبوني": 4238,
      "بذ": 4239,
      "رها": 4240,
      "شكل": 4241,
      "طاح": 4242,
      "الحدود": 4243,
      "الشهر": 4244,
      "وجزا": 4245,
      "محتاج": 4246,
      "الوط": 4247,
      "الوزير": 4248,
      "خصو": 4249,
      "ziz": 4250,
      "صدقني": 4251,
      "الفقر": 4252,
      "أذ": 4253,
      "اكيد": 4254,
      "ثل": 4255,
      "صعبة": 4256,
      "ضبط": 4257,
      "قية": 4258,
      "الشيء": 4259,
      "ديال": 4260,
      "واي": 4261,
      "وركم": 4262,
      "البلي": 4263,
      "كوراج": 4264,
      "الرحمان": 4265,
      "المناطق": 4266,
      "سعيدة": 4267,
      "ومرحبا": 4268,
      "iba": 4269,
      "دس": 4270,
      "زقنا": 4271,
      "سعة": 4272,
      "صحيت": 4273,
      "يوتي": 4274,
      "عنوان": 4275,
      "رمض": 4276,
      "كنتش": 4277,
      "وَلَا": 4278,
      "لاحظ": 4279,
      "رَب": 4280,
      "مفهو": 4281,
      "mis": 4282,
      "net": 4283,
      "ys": 4284,
      "حدا": 4285,
      "حطاب": 4286,
      "علها": 4287,
      "ممثلين": 4288,
      "ّا": 4289,
      "الور": 4290,
      "وند": 4291,
      "فارغ": 4292,
      "andi": 4293,
      "بلادهم": 4294,
      "تسما": 4295,
      "رضا": 4296,
      "طلعلي": 4297,
      "أعلم": 4298,
      "اكل": 4299,
      "بالعربية": 4300,
      "رقاد": 4301,
      "مكن": 4302,
      "وكاين": 4303,
      "وبالتوفيق": 4304,
      "الرائعة": 4305,
      "يقولك": 4306,
      "تهاش": 4307,
      "قادمة": 4308,
      "خلقه": 4309,
      "الظالمين": 4310,
      "can": 4311,
      "por": 4312,
      "إلي": 4313,
      "حوم": 4314,
      "طير": 4315,
      "عني": 4316,
      "فخ": 4317,
      "فوا": 4318,
      "قدام": 4319,
      "لخر": 4320,
      "نون": 4321,
      "وى": 4322,
      "الني": 4323,
      "ياز": 4324,
      "باغ": 4325,
      "مره": 4326,
      "الترجمة": 4327,
      "طاك": 4328,
      "khi": 4329,
      "لبنان": 4330,
      "مجال": 4331,
      "طولش": 4332,
      "كوميديا": 4333,
      "حفظك": 4334,
      "الفيديوات": 4335,
      "You": 4336,
      "pk": 4337,
      "حدود": 4338,
      "رع": 4339,
      "كرو": 4340,
      "لبا": 4341,
      "وحتى": 4342,
      "ناكل": 4343,
      "راة": 4344,
      "القنوات": 4345,
      "يهدينا": 4346,
      "cham": 4347,
      "djawed": 4348,
      "رياض": 4349,
      "dis": 4350,
      "lina": 4351,
      "دورة": 4352,
      "لوا": 4353,
      "الكلمات": 4354,
      "ونال": 4355,
      "سلك": 4356,
      "الشق": 4357,
      "نشري": 4358,
      "chaba": 4359,
      "fih": 4360,
      "ممتاز": 4361,
      "الحلال": 4362,
      "algéri": 4363,
      "cu": 4364,
      "lu": 4365,
      "ئر": 4366,
      "بجام": 4367,
      "ترب": 4368,
      "تجد": 4369,
      "تربح": 4370,
      "ضد": 4371,
      "معل": 4372,
      "مخلو": 4373,
      "ياكل": 4374,
      "راائ": 4375,
      "بازة": 4376,
      "تاب": 4377,
      "توري": 4378,
      "كام": 4379,
      "الحكم": 4380,
      "ذاب": 4381,
      "haf": 4382,
      "بوه": 4383,
      "مليار": 4384,
      "لحقت": 4385,
      "يسهلك": 4386,
      "تسمع": 4387,
      "نقولو": 4388,
      "هده": 4389,
      "شفنا": 4390,
      "ــه": 4391,
      "Djawed": 4392,
      "sé": 4393,
      "اولا": 4394,
      "ران": 4395,
      "قباي": 4396,
      "للك": 4397,
      "نبدا": 4398,
      "الفو": 4399,
      "لابس": 4400,
      "مولا": 4401,
      "برحم": 4402,
      "التش": 4403,
      "النفس": 4404,
      "قوله": 4405,
      "دينك": 4406,
      "toop": 4407,
      "voir": 4408,
      "جزاكم": 4409,
      "اقروت": 4410,
      "frère": 4411,
      "forma": 4412,
      "سوريا": 4413,
      "ملكة": 4414,
      "الحقيقي": 4415,
      "ida": 4416,
      "jr": 4417,
      "ox": 4418,
      "ssi": 4419,
      "ؤولي": 4420,
      "بدي": 4421,
      "دقا": 4422,
      "سويس": 4423,
      "وذ": 4424,
      "ونية": 4425,
      "tani": 4426,
      "متل": 4427,
      "الريا": 4428,
      "فكاهي": 4429,
      "your": 4430,
      "بم": 4431,
      "تطلع": 4432,
      "ثانية": 4433,
      "شد": 4434,
      "عان": 4435,
      "قزام": 4436,
      "ِيم": 4437,
      "فرجوا": 4438,
      "الترك": 4439,
      "طينا": 4440,
      "الفكا": 4441,
      "زيدش": 4442,
      "ويرزق": 4443,
      "قرعة": 4444,
      "المجتمع": 4445,
      "كتاب": 4446,
      "Vi": 4447,
      "mt": 4448,
      "ême": 4449,
      "اغفر": 4450,
      "تبه": 4451,
      "خلة": 4452,
      "لاز": 4453,
      "ماع": 4454,
      "هادة": 4455,
      "ونص": 4456,
      "المدينة": 4457,
      "raf": 4458,
      "رفة": 4459,
      "مثلة": 4460,
      "lih": 4461,
      "طيكم": 4462,
      "تمد": 4463,
      "لأنه": 4464,
      "المشاهدة": 4465,
      "ياودي": 4466,
      "كفاه": 4467,
      "النهاية": 4468,
      "Le": 4469,
      "أجل": 4470,
      "بْ": 4471,
      "بوم": 4472,
      "تحم": 4473,
      "جهة": 4474,
      "طك": 4475,
      "قيم": 4476,
      "كرم": 4477,
      "مفق": 4478,
      "انهم": 4479,
      "ماك": 4480,
      "راف": 4481,
      "خوة": 4482,
      "للناس": 4483,
      "الشرك": 4484,
      "قلال": 4485,
      "قوى": 4486,
      "قولها": 4487,
      "لانك": 4488,
      "أيام": 4489,
      "طه": 4490,
      "قرب": 4491,
      "يفة": 4492,
      "ريع": 4493,
      "ربيجان": 4494,
      "يوب": 4495,
      "نتها": 4496,
      "بالدموع": 4497,
      "مثلك": 4498,
      "نحبوك": 4499,
      "طاج": 4500,
      "توحشت": 4501,
      "مستقبل": 4502,
      "هُوَ": 4503,
      "algeri": 4504,
      "ila": 4505,
      "wh": 4506,
      "بأن": 4507,
      "تطور": 4508,
      "دُ": 4509,
      "شيك": 4510,
      "قدوة": 4511,
      "الرجل": 4512,
      "ديدين": 4513,
      "المه": 4514,
      "لوش": 4515,
      "بالف": 4516,
      "فايس": 4517,
      "ولايتي": 4518,
      "raj": 4519,
      "ومداد": 4520,
      "حابين": 4521,
      "القيا": 4522,
      "رجعو": 4523,
      "نحتاج": 4524,
      "dit": 4525,
      "يخص": 4526,
      "اكتر": 4527,
      "ادعو": 4528,
      "تنسا": 4529,
      "نصف": 4530,
      "عنابة": 4531,
      "Les": 4532,
      "امر": 4533,
      "بحت": 4534,
      "دليل": 4535,
      "يعلم": 4536,
      "ليب": 4537,
      "مارك": 4538,
      "رايك": 4539,
      "الحالة": 4540,
      "فقك": 4541,
      "حاس": 4542,
      "الصحي": 4543,
      "كثرة": 4544,
      "غامر": 4545,
      "كملت": 4546,
      "صدقة": 4547,
      "Ch": 4548,
      "tna": 4549,
      "تنحي": 4550,
      "نِ": 4551,
      "يهدرو": 4552,
      "ياسر": 4553,
      "نوض": 4554,
      "مستغانم": 4555,
      "عاونوني": 4556,
      "رغيس": 4557,
      "طويلة": 4558,
      "وجميع": 4559,
      "ik": 4560,
      "ااه": 4561,
      "خلع": 4562,
      "سِ": 4563,
      "عقلية": 4564,
      "لال": 4565,
      "ويحفظ": 4566,
      "القادمة": 4567,
      "هاكا": 4568,
      "المرأة": 4569,
      "ويه": 4570,
      "التس": 4571,
      "تشري": 4572,
      "الخالق": 4573,
      "بحر": 4574,
      "Wlh": 4575,
      "by": 4576,
      "mf": 4577,
      "ten": 4578,
      "اض": 4579,
      "رهو": 4580,
      "زد": 4581,
      "ظار": 4582,
      "كبار": 4583,
      "الرج": 4584,
      "ماريكان": 4585,
      "عاودو": 4586,
      "يوما": 4587,
      "تيبازة": 4588,
      "الحرب": 4589,
      "جعله": 4590,
      "بلدنا": 4591,
      "الكاميرا": 4592,
      "حكاية": 4593,
      "jours": 4594,
      "gou": 4595,
      "بحمده": 4596,
      "تسب": 4597,
      "ثالث": 4598,
      "ناقص": 4599,
      "ماق": 4600,
      "معجب": 4601,
      "تعيشو": 4602,
      "للبلاد": 4603,
      "شخصيا": 4604,
      "مغربية": 4605,
      "طبعا": 4606,
      "ديسلايك": 4607,
      "تعلمت": 4608,
      "صعيبة": 4609,
      "27": 4610,
      "dya": 4611,
      "امن": 4612,
      "خف": 4613,
      "دخلو": 4614,
      "محم": 4615,
      "مفيدة": 4616,
      "نُ": 4617,
      "وسا": 4618,
      "النو": 4619,
      "زاء": 4620,
      "ميس": 4621,
      "الشعر": 4622,
      "قتلو": 4623,
      "الثانية": 4624,
      "جلفة": 4625,
      "اشترك": 4626,
      "سيرتو": 4627,
      "والعافية": 4628,
      "البليدة": 4629,
      "od": 4630,
      "ادي": 4631,
      "تكل": 4632,
      "عظيم": 4633,
      "قديم": 4634,
      "كير": 4635,
      "متق": 4636,
      "نربح": 4637,
      "هى": 4638,
      "هَا": 4639,
      "بائ": 4640,
      "المقا": 4641,
      "ههع": 4642,
      "نيش": 4643,
      "كاشي": 4644,
      "والش": 4645,
      "اوڨروت": 4646,
      "مته": 4647,
      "الشعوب": 4648,
      "وجود": 4649,
      "ديرولي": 4650,
      "اخت": 4651,
      "مقطع": 4652,
      "فريدة": 4653,
      "très": 4654,
      "الاولى": 4655,
      "foor": 4656,
      "ستاذ": 4657,
      "فيديواتك": 4658,
      "gu": 4659,
      "خطر": 4660,
      "الغير": 4661,
      "ياتي": 4662,
      "ونحن": 4663,
      "تاي": 4664,
      "ولى": 4665,
      "الحلو": 4666,
      "جاحات": 4667,
      "مالي": 4668,
      "عمك": 4669,
      "wach": 4670,
      "الصيف": 4671,
      "لَهُ": 4672,
      "الغمة": 4673,
      "مهبول": 4674,
      "توحشتك": 4675,
      "تستهل": 4676,
      "keep": 4677,
      "frr": 4678,
      "حسبنا": 4679,
      "الفلوق": 4680,
      "البرامج": 4681,
      "RA": 4682,
      "ef": 4683,
      "gar": 4684,
      "ser": 4685,
      "ssa": 4686,
      "شت": 4687,
      "غف": 4688,
      "يسلم": 4689,
      "البلا": 4690,
      "الرسالة": 4691,
      "الولايات": 4692,
      "عائلة": 4693,
      "تحي": 4694,
      "معه": 4695,
      "صلة": 4696,
      "الأم": 4697,
      "البداية": 4698,
      "دقة": 4699,
      "bai": 4700,
      "bal": 4701,
      "bach": 4702,
      "لبس": 4703,
      "face": 4704,
      "منيتي": 4705,
      "قريت": 4706,
      "دعمو": 4707,
      "ybarek": 4708,
      "formation": 4709,
      "cette": 4710,
      "nou": 4711,
      "yt": 4712,
      "جزاير": 4713,
      "جنوب": 4714,
      "عص": 4715,
      "عقلي": 4716,
      "قُ": 4717,
      "مأ": 4718,
      "ممن": 4719,
      "معلم": 4720,
      "نعاون": 4721,
      "هدو": 4722,
      "هادوك": 4723,
      "العضيم": 4724,
      "بالخير": 4725,
      "نتابع": 4726,
      "كاملة": 4727,
      "الفرزدق": 4728,
      "لأنك": 4729,
      "نبغيك": 4730,
      "28": 4731,
      "Li": 4732,
      "vp": 4733,
      "yer": 4734,
      "أر": 4735,
      "اخويا": 4736,
      "احمد": 4737,
      "طبيع": 4738,
      "عفو": 4739,
      "كلهم": 4740,
      "نقار": 4741,
      "هالك": 4742,
      "وراك": 4743,
      "وضع": 4744,
      "الخر": 4745,
      "ونش": 4746,
      "المغاربة": 4747,
      "توجد": 4748,
      "شوك": 4749,
      "mad": 4750,
      "mana": 4751,
      "السؤال": 4752,
      "الشمس": 4753,
      "yar": 4754,
      "الإست": 4755,
      "مغامرة": 4756,
      "نعرفو": 4757,
      "nchalah": 4758,
      "غزالي": 4759,
      "fou": 4760,
      "بتك": 4761,
      "خبر": 4762,
      "للو": 4763,
      "لحد": 4764,
      "مفيد": 4765,
      "وخلاص": 4766,
      "فيدو": 4767,
      "يحوس": 4768,
      "والإ": 4769,
      "يتقبل": 4770,
      "حترم": 4771,
      "اوروبا": 4772,
      "ona": 4773,
      "يرحمهم": 4774,
      "هيلة": 4775,
      "وليدي": 4776,
      "مستحيل": 4777,
      "مشاءالله": 4778,
      "ويعطيك": 4779,
      "ndi": 4780,
      "um": 4781,
      "بشار": 4782,
      "تفو": 4783,
      "خليك": 4784,
      "كفاش": 4785,
      "مما": 4786,
      "نطلع": 4787,
      "ومة": 4788,
      "لاكن": 4789,
      "ماكاش": 4790,
      "روطار": 4791,
      "ولكم": 4792,
      "قامة": 4793,
      "ويشافي": 4794,
      "يعمل": 4795,
      "موسم": 4796,
      "جوااد": 4797,
      "chwi": 4798,
      "الأمر": 4799,
      "خصك": 4800,
      "الطريقة": 4801,
      "ضافة": 4802,
      "عشت": 4803,
      "مشاكل": 4804,
      "زيار": 4805,
      "ابداع": 4806,
      "ميمتك": 4807,
      "hbb": 4808,
      "alah": 4809,
      "جعو": 4810,
      "عُ": 4811,
      "قدير": 4812,
      "مب": 4813,
      "مـ": 4814,
      "ليام": 4815,
      "ماتو": 4816,
      "ريل": 4817,
      "روحت": 4818,
      "حميد": 4819,
      "الحر": 4820,
      "الاقل": 4821,
      "may": 4822,
      "حاجه": 4823,
      "ref": 4824,
      "نقرا": 4825,
      "أوقروت": 4826,
      "أكد": 4827,
      "أخذ": 4828,
      "that": 4829,
      "رايحين": 4830,
      "موهبة": 4831,
      "طويل": 4832,
      "mr": 4833,
      "إليك": 4834,
      "براك": 4835,
      "حبش": 4836,
      "عكس": 4837,
      "نكمل": 4838,
      "يلحق": 4839,
      "ٰه": 4840,
      "ريه": 4841,
      "عامين": 4842,
      "عاصمة": 4843,
      "ولوج": 4844,
      "mak": 4845,
      "التجا": 4846,
      "الأمة": 4847,
      "الجزائرين": 4848,
      "امازيغ": 4849,
      "سلاام": 4850,
      "جانب": 4851,
      "ايجابية": 4852,
      "29": 4853,
      "Kho": 4854,
      "même": 4855,
      "rous": 4856,
      "ty": 4857,
      "أنو": 4858,
      "أتوب": 4859,
      "تسكن": 4860,
      "تخلص": 4861,
      "حمام": 4862,
      "خس": 4863,
      "درة": 4864,
      "نار": 4865,
      "الجمال": 4866,
      "ميش": 4867,
      "ميستر": 4868,
      "الحاج": 4869,
      "عنها": 4870,
      "شوق": 4871,
      "سمين": 4872,
      "فيكوس": 4873,
      "يخليكم": 4874,
      "استف": 4875,
      "خلوي": 4876,
      "زانيا": 4877,
      "وارع": 4878,
      "خاطرش": 4879,
      "45": 4880,
      "gni": 4881,
      "ich": 4882,
      "jet": 4883,
      "بوا": 4884,
      "حرة": 4885,
      "حيات": 4886,
      "مانت": 4887,
      "انون": 4888,
      "مادا": 4889,
      "روش": 4890,
      "سامة": 4891,
      "ena": 4892,
      "الأخير": 4893,
      "bay": 4894,
      "تتمنى": 4895,
      "ork": 4896,
      "اسمي": 4897,
      "صاحبك": 4898,
      "ومازال": 4899,
      "المجال": 4900,
      "نروحو": 4901,
      "بالعكس": 4902,
      "bni": 4903,
      "fran": 4904,
      "أمر": 4905,
      "شركة": 4906,
      "صار": 4907,
      "عما": 4908,
      "فله": 4909,
      "فرا": 4910,
      "هن": 4911,
      "وافضل": 4912,
      "ريمة": 4913,
      "فرة": 4914,
      "شكرك": 4915,
      "متتبع": 4916,
      "سكري": 4917,
      "النظ": 4918,
      "قيلا": 4919,
      "faire": 4920,
      "موتى": 4921,
      "tres": 4922,
      "حلوة": 4923,
      "الطاقة": 4924,
      "تقا": 4925,
      "سعو": 4926,
      "صبر": 4927,
      "متا": 4928,
      "متك": 4929,
      "مضحك": 4930,
      "فيز": 4931,
      "واست": 4932,
      "كمش": 4933,
      "شات": 4934,
      "عاشو": 4935,
      "عائل": 4936,
      "ورقلة": 4937,
      "الحي": 4938,
      "oum": 4939,
      "liha": 4940,
      "قتلت": 4941,
      "ques": 4942,
      "اسمحلي": 4943,
      "الانجليزية": 4944,
      "مقاطع": 4945,
      "MA": 4946,
      "yes": 4947,
      "أيا": 4948,
      "تشوفو": 4949,
      "صرات": 4950,
      "وزو": 4951,
      "ڨو": 4952,
      "لاشان": 4953,
      "يارة": 4954,
      "العقلية": 4955,
      "شوش": 4956,
      "بوتف": 4957,
      "الأعمال": 4958,
      "طاع": 4959,
      "tikom": 4960,
      "صايم": 4961,
      "اصبح": 4962,
      "المقطع": 4963,
      "تفكرت": 4964,
      "راجعون": 4965,
      "far": 4966,
      "yw": 4967,
      "أبو": 4968,
      "بالجزائر": 4969,
      "عزيز": 4970,
      "فُ": 4971,
      "فها": 4972,
      "قطر": 4973,
      "ڨل": 4974,
      "فيف": 4975,
      "ماط": 4976,
      "رابي": 4977,
      "الحيو": 4978,
      "ويل": 4979,
      "يعينك": 4980,
      "حاج": 4981,
      "الأفضل": 4982,
      "الشمال": 4983,
      "الصمد": 4984,
      "مشهور": 4985,
      "sal": 4986,
      "الزواج": 4987,
      "يطيح": 4988,
      "فنانين": 4989,
      "sahbi": 4990,
      "مازيغية": 4991,
      "isode": 4992,
      "03": 4993,
      "90": 4994,
      "oi": 4995,
      "تعاون": 4996,
      "حراشي": 4997,
      "مدي": 4998,
      "ننت": 4999,
      "نريد": 5000,
      "باريس": 5001,
      "كمال": 5002,
      "تافه": 5003,
      "ميمون": 5004,
      "hat": 5005,
      "تعود": 5006,
      "شيونال": 5007,
      "هوش": 5008,
      "اوو": 5009,
      "نوان": 5010,
      "اليتي": 5011,
      "الصباح": 5012,
      "كومنتار": 5013,
      "اخلاق": 5014,
      "تحقيق": 5015,
      "الراجل": 5016,
      "vlogs": 5017,
      "رمضاني": 5018,
      "fl": 5019,
      "تيا": 5020,
      "طري": 5021,
      "طفى": 5022,
      "مجا": 5023,
      "يبي": 5024,
      "ليو": 5025,
      "ناها": 5026,
      "المخ": 5027,
      "تاء": 5028,
      "تعة": 5029,
      "تقرا": 5030,
      "سمانة": 5031,
      "احسنت": 5032,
      "نحكي": 5033,
      "الصحا": 5034,
      "بلدك": 5035,
      "اشتراك": 5036,
      "غلبية": 5037,
      "مشاهد": 5038,
      "دعولي": 5039,
      "مِنْ": 5040,
      "Mohamed": 5041,
      "خصوصا": 5042,
      "دقايق": 5043,
      "Mer": 5044,
      "pre": 5045,
      "pay": 5046,
      "tour": 5047,
      "إبراهيم": 5048,
      "دى": 5049,
      "زه": 5050,
      "طرق": 5051,
      "عهد": 5052,
      "لاني": 5053,
      "ديل": 5054,
      "هارب": 5055,
      "ونه": 5056,
      "زاف": 5057,
      "العرش": 5058,
      "معندي": 5059,
      "hay": 5060,
      "ويبارك": 5061,
      "شكوبي": 5062,
      "ولادي": 5063,
      "القلوب": 5064,
      "يقدم": 5065,
      "متت": 5066,
      "الصحرا": 5067,
      "الدعاء": 5068,
      "تستاهلو": 5069,
      "نقطة": 5070,
      "مجيد": 5071,
      "يكونو": 5072,
      "مزالني": 5073,
      "متعتنا": 5074,
      "غلطة": 5075,
      "أنتم": 5076,
      "برافوو": 5077,
      "زعفانين": 5078,
      "الشاب": 5079,
      "El": 5080,
      "Ja": 5081,
      "Rak": 5082,
      "ايبارك": 5083,
      "لست": 5084,
      "نم": 5085,
      "انين": 5086,
      "ماما": 5087,
      "المملكة": 5088,
      "شابه": 5089,
      "بالضبط": 5090,
      "فاف": 5091,
      "للجميع": 5092,
      "تقعد": 5093,
      "ناسها": 5094,
      "الوباء": 5095,
      "الدور": 5096,
      "did": 5097,
      "كومة": 5098,
      "اعطيني": 5099,
      "برامج": 5100,
      "kach": 5101,
      "كتير": 5102,
      "nchallah": 5103,
      "غرافيك": 5104,
      "بوتفلي": 5105,
      "DZ": 5106,
      "ارب": 5107,
      "بث": 5108,
      "حلة": 5109,
      "خم": 5110,
      "دَ": 5111,
      "رر": 5112,
      "شرق": 5113,
      "طال": 5114,
      "هب": 5115,
      "الشكر": 5116,
      "رايحة": 5117,
      "واء": 5118,
      "ورضا": 5119,
      "تحكم": 5120,
      "سامح": 5121,
      "rais": 5122,
      "لامريكا": 5123,
      "السماء": 5124,
      "إنك": 5125,
      "نقدرو": 5126,
      "يبغي": 5127,
      "sion": 5128,
      "قليلة": 5129,
      "عايشة": 5130,
      "نزورها": 5131,
      "أسطورة": 5132,
      "افهم": 5133,
      "تبدل": 5134,
      "ظل": 5135,
      "عري": 5136,
      "فِ": 5137,
      "فِي": 5138,
      "قوم": 5139,
      "وجا": 5140,
      "وأن": 5141,
      "ڨا": 5142,
      "يوص": 5143,
      "نيتك": 5144,
      "ساد": 5145,
      "ساه": 5146,
      "القالة": 5147,
      "القيمة": 5148,
      "تشرف": 5149,
      "يسر": 5150,
      "بركة": 5151,
      "صالحة": 5152,
      "hiya": 5153,
      "pré": 5154,
      "سورتو": 5155,
      "39": 5156,
      "aj": 5157,
      "ara": 5158,
      "اقل": 5159,
      "امام": 5160,
      "بالج": 5161,
      "بشر": 5162,
      "بصراحة": 5163,
      "تربي": 5164,
      "تالي": 5165,
      "تصلح": 5166,
      "ثار": 5167,
      "خان": 5168,
      "رِ": 5169,
      "زدت": 5170,
      "سهيلة": 5171,
      "لواحد": 5172,
      "انش": 5173,
      "المعا": 5174,
      "العنوان": 5175,
      "الايجابية": 5176,
      "برى": 5177,
      "تقدير": 5178,
      "تقولو": 5179,
      "ديروا": 5180,
      "اعط": 5181,
      "اختك": 5182,
      "wela": 5183,
      "youtu": 5184,
      "القادر": 5185,
      "bladi": 5186,
      "miloud": 5187,
      "بوسعادة": 5188,
      "حومتي": 5189,
      "hba": 5190,
      "إنت": 5191,
      "ئدة": 5192,
      "ارج": 5193,
      "خدام": 5194,
      "دحمان": 5195,
      "زون": 5196,
      "عثمان": 5197,
      "فيما": 5198,
      "ونو": 5199,
      "المرا": 5200,
      "يحكم": 5201,
      "الابداع": 5202,
      "laz": 5203,
      "ومبعد": 5204,
      "الكون": 5205,
      "tak": 5206,
      "نحط": 5207,
      "هذوك": 5208,
      "wahed": 5209,
      "all": 5210,
      "يجعلها": 5211,
      "فلوغ": 5212,
      "عيني": 5213,
      "ami": 5214,
      "محترف": 5215,
      "حطيت": 5216,
      "نتبعك": 5217,
      "المتابعين": 5218,
      "ER": 5219,
      "Khou": 5220,
      "ndir": 5221,
      "wti": 5222,
      "ألم": 5223,
      "تغير": 5224,
      "تخر": 5225,
      "دبي": 5226,
      "علام": 5227,
      "عيس": 5228,
      "فدي": 5229,
      "مرك": 5230,
      "نغ": 5231,
      "اللب": 5232,
      "السيناريو": 5233,
      "ديجا": 5234,
      "شاط": 5235,
      "معنتها": 5236,
      "mah": 5237,
      "القديم": 5238,
      "جيل": 5239,
      "عوذ": 5240,
      "lol": 5241,
      "أماكن": 5242,
      "وزارة": 5243,
      "مجهودا": 5244,
      "الثقافة": 5245,
      "كيكدة": 5246,
      "éta": 5247,
      "جولة": 5248,
      "حلق": 5249,
      "كفي": 5250,
      "لاباس": 5251,
      "ياحة": 5252,
      "ماس": 5253,
      "وام": 5254,
      "هااي": 5255,
      "بائل": 5256,
      "المحا": 5257,
      "عاية": 5258,
      "تحفة": 5259,
      "نتعلم": 5260,
      "والأ": 5261,
      "والس": 5262,
      "للشعب": 5263,
      "الكرم": 5264,
      "لحقو": 5265,
      "dem": 5266,
      "bali": 5267,
      "art": 5268,
      "براا": 5269,
      "صافي": 5270,
      "وأنت": 5271,
      "قصد": 5272,
      "اهلنا": 5273,
      "سليمان": 5274,
      "pod": 5275,
      "Algeri": 5276,
      "يعجبوني": 5277,
      "مدرسة": 5278,
      "نحوسو": 5279,
      "مزيدا": 5280,
      "26": 5281,
      "حقو": 5282,
      "كد": 5283,
      "ودا": 5284,
      "يتع": 5285,
      "وااو": 5286,
      "يربح": 5287,
      "المط": 5288,
      "ميساج": 5289,
      "فرونسي": 5290,
      "الاه": 5291,
      "والف": 5292,
      "سيتي": 5293,
      "القدير": 5294,
      "tan": 5295,
      "الأش": 5296,
      "إنها": 5297,
      "كندا": 5298,
      "dio": 5299,
      "سلامتك": 5300,
      "كونت": 5301,
      "love": 5302,
      "بحث": 5303,
      "خلوق": 5304,
      "نسيتو": 5305,
      "قداه": 5306,
      "Hichem": 5307,
      "gnifi": 5308,
      "van": 5309,
      "اتو": 5310,
      "تذ": 5311,
      "تى": 5312,
      "عدو": 5313,
      "لتم": 5314,
      "نكر": 5315,
      "نرجع": 5316,
      "وبعد": 5317,
      "قاش": 5318,
      "يدور": 5319,
      "يعة": 5320,
      "موجود": 5321,
      "القدم": 5322,
      "الأغنية": 5323,
      "زيكم": 5324,
      "النور": 5325,
      "عجبوني": 5326,
      "الفيزا": 5327,
      "دعموني": 5328,
      "وغدار": 5329,
      "أخوك": 5330,
      "ئك": 5331,
      "امل": 5332,
      "اتق": 5333,
      "تسمى": 5334,
      "ثقف": 5335,
      "سى": 5336,
      "سنا": 5337,
      "عبارة": 5338,
      "ومات": 5339,
      "انجليزية": 5340,
      "لاف": 5341,
      "ديسم": 5342,
      "تيش": 5343,
      "الاماكن": 5344,
      "ويج": 5345,
      "والق": 5346,
      "ومان": 5347,
      "لعتروس": 5348,
      "مانعرف": 5349,
      "اجعل": 5350,
      "سياحية": 5351,
      "حسبي": 5352,
      "مزية": 5353,
      "كرهت": 5354,
      "المغربي": 5355,
      "mdan": 5356,
      "العصابة": 5357,
      "Rani": 5358,
      "Tu": 5359,
      "bda": 5360,
      "ie": 5361,
      "km": 5362,
      "ner": 5363,
      "اسلام": 5364,
      "جمل": 5365,
      "حه": 5366,
      "ربا": 5367,
      "رمو": 5368,
      "طف": 5369,
      "عسل": 5370,
      "عالي": 5371,
      "مباش": 5372,
      "ماتك": 5373,
      "علمو": 5374,
      "ربيع": 5375,
      "تحتاج": 5376,
      "جايب": 5377,
      "باللغة": 5378,
      "برد": 5379,
      "سمك": 5380,
      "الأخيرة": 5381,
      "كثيرة": 5382,
      "الهند": 5383,
      "تمتع": 5384,
      "البارح": 5385,
      "بحق": 5386,
      "نستمتع": 5387,
      "طلعت": 5388,
      "يعرفو": 5389,
      "atrous": 5390,
      "coup": 5391,
      "المشاكل": 5392,
      "تقدرش": 5393,
      "كوميدية": 5394,
      "الفقراء": 5395,
      "بسيطة": 5396,
      "ليكيب": 5397,
      "بوتفليقة": 5398,
      "عيسى": 5399,
      "05": 5400,
      "Mou": 5401,
      "vu": 5402,
      "بلك": 5403,
      "تعاود": 5404,
      "دِ": 5405,
      "قيت": 5406,
      "لدار": 5407,
      "ومو": 5408,
      "وراه": 5409,
      "ويحفظك": 5410,
      "وبين": 5411,
      "كمية": 5412,
      "الجز": 5413,
      "habi": 5414,
      "حار": 5415,
      "وجوه": 5416,
      "bar": 5417,
      "tem": 5418,
      "العاب": 5419,
      "العاجل": 5420,
      "الهجرة": 5421,
      "الخلا": 5422,
      "افكار": 5423,
      "تنزانيا": 5424,
      "اخواننا": 5425,
      "مستجابة": 5426,
      "videos": 5427,
      "تواضع": 5428,
      "ياارب": 5429,
      "اللَّهُ": 5430,
      "تنسى": 5431,
      "cast": 5432,
      "ولوجيا": 5433,
      "ديسمبر": 5434,
      "Re": 5435,
      "ؤلاء": 5436,
      "حرب": 5437,
      "مبا": 5438,
      "مسل": 5439,
      "مريم": 5440,
      "الروعة": 5441,
      "الديك": 5442,
      "لاش": 5443,
      "ماه": 5444,
      "ريحة": 5445,
      "ميين": 5446,
      "فرمضان": 5447,
      "الامام": 5448,
      "ربحت": 5449,
      "haka": 5450,
      "ولاكن": 5451,
      "متياز": 5452,
      "بدلت": 5453,
      "dam": 5454,
      "تبكي": 5455,
      "تتعلم": 5456,
      "هاتف": 5457,
      "hem": 5458,
      "ضارة": 5459,
      "قولنا": 5460,
      "متابعين": 5461,
      "صانعي": 5462,
      "اماكن": 5463,
      "فديوهاتك": 5464,
      "nchouf": 5465,
      "عمرها": 5466,
      "الأولى": 5467,
      "يفرحكم": 5468,
      "Cha": 5469,
      "إف": 5470,
      "امنيتي": 5471,
      "ثان": 5472,
      "زك": 5473,
      "صعب": 5474,
      "ضك": 5475,
      "يبعد": 5476,
      "الروح": 5477,
      "الطيب": 5478,
      "مايح": 5479,
      "المبارك": 5480,
      "عامل": 5481,
      "توكل": 5482,
      "العيش": 5483,
      "تقديم": 5484,
      "حاشا": 5485,
      "متمني": 5486,
      "الأقل": 5487,
      "طيه": 5488,
      "امرا": 5489,
      "تهد": 5490,
      "ord": 5491,
      "أحلى": 5492,
      "toi": 5493,
      "part": 5494,
      "ويسعدك": 5495,
      "فكاهية": 5496,
      "اللّٰه": 5497,
      "الفكاهة": 5498,
      "Merci": 5499,
      "IN": 5500,
      "Lah": 5501,
      "ns": 5502,
      "تفرح": 5503,
      "خش": 5504,
      "خض": 5505,
      "غول": 5506,
      "قبر": 5507,
      "مميز": 5508,
      "هرب": 5509,
      "يبيع": 5510,
      "البال": 5511,
      "الدرون": 5512,
      "ليد": 5513,
      "لامي": 5514,
      "ونك": 5515,
      "ونتي": 5516,
      "ورت": 5517,
      "تكش": 5518,
      "والوا": 5519,
      "lan": 5520,
      "هودات": 5521,
      "اومي": 5522,
      "دوه": 5523,
      "احكي": 5524,
      "متنساش": 5525,
      "زيغي": 5526,
      "وتش": 5527,
      "sais": 5528,
      "خصص": 5529,
      "دارت": 5530,
      "مقدرتش": 5531,
      "خلينا": 5532,
      "القادم": 5533,
      "nchof": 5534,
      "خاطري": 5535,
      "قائق": 5536,
      "راائع": 5537,
      "dra": 5538,
      "lé": 5539,
      "ven": 5540,
      "wli": 5541,
      "اصحاب": 5542,
      "زلت": 5543,
      "غدوا": 5544,
      "فما": 5545,
      "لباس": 5546,
      "يخلص": 5547,
      "ياجمال": 5548,
      "هاا": 5549,
      "توه": 5550,
      "فرنسي": 5551,
      "كاية": 5552,
      "يحيا": 5553,
      "يدو": 5554,
      "عنى": 5555,
      "يتم": 5556,
      "ساعد": 5557,
      "براني": 5558,
      "تقلق": 5559,
      "ise": 5560,
      "شكراً": 5561,
      "الصا": 5562,
      "وشنو": 5563,
      "زعيم": 5564,
      "اكت": 5565,
      "درتلك": 5566,
      "فديوهات": 5567,
      "شعور": 5568,
      "houm": 5569,
      "بسيط": 5570,
      "milli": 5571,
      "عَلَيْ": 5572,
      "ينتهي": 5573,
      "04": 5574,
      "Dir": 5575,
      "Mar": 5576,
      "bre": 5577,
      "hm": 5578,
      "ydir": 5579,
      "اسب": 5580,
      "بض": 5581,
      "تة": 5582,
      "خهه": 5583,
      "صغار": 5584,
      "ظهور": 5585,
      "غالية": 5586,
      "فهي": 5587,
      "مغرب": 5588,
      "وسمها": 5589,
      "ياج": 5590,
      "يرفع": 5591,
      "روه": 5592,
      "خوه": 5593,
      "ميزة": 5594,
      "ويت": 5595,
      "ملش": 5596,
      "درس": 5597,
      "نوف": 5598,
      "رجلاوي": 5599,
      "يحفظهم": 5600,
      "isir": 5601,
      "نعيشو": 5602,
      "راحو": 5603,
      "الإبداع": 5604,
      "تفرجتو": 5605,
      "تعليقات": 5606,
      "المشاهدات": 5607,
      "الضحكة": 5608,
      "01": 5609,
      "08": 5610,
      "mé": 5611,
      "wl": 5612,
      "wit": 5613,
      "برب": 5614,
      "غظ": 5615,
      "وقال": 5616,
      "يصل": 5617,
      "انكم": 5618,
      "ناك": 5619,
      "ماتح": 5620,
      "علك": 5621,
      "نيشان": 5622,
      "الحديث": 5623,
      "الاعمال": 5624,
      "بالرحمة": 5625,
      "درتها": 5626,
      "القديمة": 5627,
      "التج": 5628,
      "يحفظها": 5629,
      "قتلك": 5630,
      "طاحت": 5631,
      "الصراحة": 5632,
      "تنيش": 5633,
      "وحبيب": 5634,
      "حاليا": 5635,
      "roh": 5636,
      "ومنكم": 5637,
      "مكتوب": 5638,
      "commen": 5639,
      "لأنو": 5640,
      "احترام": 5641,
      "اغلب": 5642,
      "تبانلي": 5643,
      "الوالدة": 5644,
      "gre": 5645,
      "lle": 5646,
      "tri": 5647,
      "ème": 5648,
      "تض": 5649,
      "حسنة": 5650,
      "عظ": 5651,
      "فص": 5652,
      "كذب": 5653,
      "لإ": 5654,
      "مراكش": 5655,
      "ناج": 5656,
      "ناحية": 5657,
      "ناشيونال": 5658,
      "ياب": 5659,
      "وافق": 5660,
      "ورانا": 5661,
      "لوك": 5662,
      "جايح": 5663,
      "الابت": 5664,
      "معهم": 5665,
      "ساكن": 5666,
      "ومح": 5667,
      "اوكي": 5668,
      "حاجا": 5669,
      "yahaf": 5670,
      "محتوي": 5671,
      "البوا": 5672,
      "خصوص": 5673,
      "جلال": 5674,
      "الزمن": 5675,
      "الغربية": 5676,
      "aussi": 5677,
      "trou": 5678,
      "دروك": 5679,
      "المغامرة": 5680,
      "زرع": 5681,
      "يهديكم": 5682,
      "فروض": 5683,
      "sont": 5684,
      "اضرب": 5685,
      "بربي": 5686,
      "عالية": 5687,
      "ودير": 5688,
      "يسكن": 5689,
      "ديالي": 5690,
      "زاز": 5691,
      "حمبوك": 5692,
      "فران": 5693,
      "جاام": 5694,
      "معلا": 5695,
      "واله": 5696,
      "فاتت": 5697,
      "عملك": 5698,
      "النجاحات": 5699,
      "الفصحى": 5700,
      "الصورة": 5701,
      "نسى": 5702,
      "تبدا": 5703,
      "اللَّ": 5704,
      "راءة": 5705,
      "ils": 5706,
      "حياء": 5707,
      "وزنة": 5708,
      "السيارة": 5709,
      "الضيف": 5710,
      "ثلاثة": 5711,
      "خمسة": 5712,
      "يحميك": 5713,
      "algérien": 5714,
      "نوفمبر": 5715,
      "AL": 5716,
      "Fa": 5717,
      "but": 5718,
      "cp": 5719,
      "nous": 5720,
      "أب": 5721,
      "ألله": 5722,
      "دبر": 5723,
      "شهد": 5724,
      "صفر": 5725,
      "عِ": 5726,
      "فني": 5727,
      "فالفيديو": 5728,
      "وشكون": 5729,
      "ماعة": 5730,
      "المة": 5731,
      "سلوب": 5732,
      "هوم": 5733,
      "ras": 5734,
      "خافش": 5735,
      "nat": 5736,
      "تتزوج": 5737,
      "kif": 5738,
      "نسافر": 5739,
      "اهدر": 5740,
      "قريبا": 5741,
      "الفرحة": 5742,
      "صدقاء": 5743,
      "كلماته": 5744,
      "العلماء": 5745,
      "يسلمك": 5746,
      "براافو": 5747,
      "02": 5748,
      "تؤ": 5749,
      "تنح": 5750,
      "حفض": 5751,
      "دج": 5752,
      "رون": 5753,
      "شية": 5754,
      "شرية": 5755,
      "طحة": 5756,
      "غض": 5757,
      "فالح": 5758,
      "فالت": 5759,
      "قن": 5760,
      "مبعد": 5761,
      "نتح": 5762,
      "ڨع": 5763,
      "ياس": 5764,
      "ماتي": 5765,
      "واذا": 5766,
      "ونحب": 5767,
      "صحرا": 5768,
      "جائ": 5769,
      "الايام": 5770,
      "تكبر": 5771,
      "ويست": 5772,
      "يكن": 5773,
      "lach": 5774,
      "يعط": 5775,
      "للع": 5776,
      "الكريمة": 5777,
      "السما": 5778,
      "السوق": 5779,
      "الأح": 5780,
      "يباركلك": 5781,
      "leb": 5782,
      "يهنيك": 5783,
      "صليت": 5784,
      "الماكلة": 5785,
      "المسجد": 5786,
      "مسكينة": 5787,
      "ook": 5788,
      "gram": 5789,
      "trava": 5790,
      "السعودي": 5791,
      "اللوح": 5792,
      "bn": 5793,
      "cri": 5794,
      "gé": 5795,
      "توني": 5796,
      "سأ": 5797,
      "قاله": 5798,
      "لّ": 5799,
      "نطلب": 5800,
      "وسي": 5801,
      "الطيبة": 5802,
      "انب": 5803,
      "ليهم": 5804,
      "ونبينا": 5805,
      "لكة": 5806,
      "ولاو": 5807,
      "حاكم": 5808,
      "الشفاء": 5809,
      "زيرية": 5810,
      "ome": 5811,
      "الثقة": 5812,
      "اللغ": 5813,
      "افريل": 5814,
      "اشهر": 5815,
      "بدات": 5816,
      "ماريا": 5817,
      "thank": 5818,
      "كلاش": 5819,
      "تلفزيون": 5820,
      "دخلك": 5821,
      "gen": 5822,
      "اهم": 5823,
      "تمة": 5824,
      "تريد": 5825,
      "طوب": 5826,
      "فتا": 5827,
      "الكي": 5828,
      "منة": 5829,
      "علی": 5830,
      "تاف": 5831,
      "ميعرف": 5832,
      "كاء": 5833,
      "جاج": 5834,
      "الامري": 5835,
      "بالصحة": 5836,
      "ess": 5837,
      "للأ": 5838,
      "جيدا": 5839,
      "علاجال": 5840,
      "ونيسيا": 5841,
      "الصين": 5842,
      "tif": 5843,
      "اتِ": 5844,
      "دارنا": 5845,
      "قولك": 5846,
      "فورر": 5847,
      "المجهودات": 5848,
      "أختي": 5849,
      "المستعان": 5850,
      "plaisir": 5851,
      "بلاصتك": 5852,
      "هاهاهاها": 5853,
      "وثائ": 5854,
      "استمتعت": 5855,
      "دزيري": 5856,
      "bin": 5857,
      "wn": 5858,
      "ارة": 5859,
      "جرير": 5860,
      "رمة": 5861,
      "رهي": 5862,
      "هبط": 5863,
      "وطن": 5864,
      "الباب": 5865,
      "البعض": 5866,
      "ليحب": 5867,
      "يامات": 5868,
      "رابط": 5869,
      "ينقص": 5870,
      "ولن": 5871,
      "معروف": 5872,
      "عنص": 5873,
      "hach": 5874,
      "بلادو": 5875,
      "يكره": 5876,
      "موتور": 5877,
      "دولي": 5878,
      "التواصل": 5879,
      "التصوي": 5880,
      "متربي": 5881,
      "الأيام": 5882,
      "جبتها": 5883,
      "ناسبة": 5884,
      "سكرة": 5885,
      "البرو": 5886,
      "لهاش": 5887,
      "مانشوف": 5888,
      "غابة": 5889,
      "واصلوا": 5890,
      "عرشه": 5891,
      "صوتك": 5892,
      "جزيرة": 5893,
      "اللَّه": 5894,
      "غاضني": 5895,
      "رئيس": 5896,
      "دحمانوس": 5897,
      "07": 5898,
      "apr": 5899,
      "أريد": 5900,
      "ثما": 5901,
      "جير": 5902,
      "حبو": 5903,
      "سكيكدة": 5904,
      "شجرة": 5905,
      "مربي": 5906,
      "مفهم": 5907,
      "نڨ": 5908,
      "نزع": 5909,
      "وفا": 5910,
      "وسلام": 5911,
      "يطلعلي": 5912,
      "ياتك": 5913,
      "هاته": 5914,
      "ونتوما": 5915,
      "الميت": 5916,
      "المفروض": 5917,
      "توقف": 5918,
      "خوبيب": 5919,
      "ويكون": 5920,
      "بعيدة": 5921,
      "دوكا": 5922,
      "إنجليزية": 5923,
      "تشفت": 5924,
      "walah": 5925,
      "اتعلم": 5926,
      "راحش": 5927,
      "يجو": 5928,
      "يجري": 5929,
      "ندعمو": 5930,
      "يضحكني": 5931,
      "أصبح": 5932,
      "العربيه": 5933,
      "وحبيبنا": 5934,
      "35": 5935,
      "AN": 5936,
      "ban": 5937,
      "أحمد": 5938,
      "إبداع": 5939,
      "ابي": 5940,
      "طح": 5941,
      "طية": 5942,
      "غم": 5943,
      "نطالب": 5944,
      "ماضي": 5945,
      "رابح": 5946,
      "واضح": 5947,
      "المتح": 5948,
      "ميد": 5949,
      "ميك": 5950,
      "تيزي": 5951,
      "يقرا": 5952,
      "jawad": 5953,
      "الإيجابية": 5954,
      "تندم": 5955,
      "لانها": 5956,
      "متعرف": 5957,
      "قصص": 5958,
      "بشكل": 5959,
      "مزالو": 5960,
      "رهج": 5961,
      "مختلف": 5962,
      "أصلا": 5963,
      "قلوب": 5964,
      "يُّ": 5965,
      "ونتمنى": 5966,
      "الفتنة": 5967,
      "الشقيق": 5968,
      "06": 5969,
      "ON": 5970,
      "ls": 5971,
      "ph": 5972,
      "ئن": 5973,
      "اط": 5974,
      "بهذه": 5975,
      "خطا": 5976,
      "خنش": 5977,
      "طَ": 5978,
      "ّة": 5979,
      "لاد": 5980,
      "ماعندي": 5981,
      "صحتك": 5982,
      "out": 5983,
      "باليش": 5984,
      "يعوض": 5985,
      "موجودة": 5986,
      "بولي": 5987,
      "مرسي": 5988,
      "متواضع": 5989,
      "yat": 5990,
      "زيل": 5991,
      "وجل": 5992,
      "lement": 5993,
      "دمان": 5994,
      "يومين": 5995,
      "غادر": 5996,
      "نشوفها": 5997,
      "اكدلي": 5998,
      "ترى": 5999,
      "حياتو": 6000,
      "aux": 6001,
      "حبست": 6002,
      "يجابي": 6003,
      "المشاه": 6004,
      "إِنَّ": 6005,
      "استغفرالله": 6006,
      "حوست": 6007,
      "ويعافيه": 6008,
      "juste": 6009,
      "kayen": 6010,
      "القيامة": 6011,
      "Me": 6012,
      "fan": 6013,
      "yr": 6014,
      "ألي": 6015,
      "حص": 6016,
      "حيد": 6017,
      "دمت": 6018,
      "شهادة": 6019,
      "ضرو": 6020,
      "انتوما": 6021,
      "ياجدك": 6022,
      "وادي": 6023,
      "زار": 6024,
      "فرصة": 6025,
      "العمر": 6026,
      "بالأ": 6027,
      "rahi": 6028,
      "القصة": 6029,
      "اليستا": 6030,
      "لحظة": 6031,
      "قوية": 6032,
      "نسقسي": 6033,
      "chaine": 6034,
      "الخلق": 6035,
      "الباقي": 6036,
      "راءع": 6037,
      "عشرة": 6038,
      "فريت": 6039,
      "ado": 6040,
      "نشوفوك": 6041,
      "المشاهد": 6042,
      "إِلا": 6043,
      "شريت": 6044,
      "hadik": 6045,
      "اللّه": 6046,
      "إِلَهَ": 6047,
      "fdk": 6048,
      "inchallah": 6049,
      "09": 6050,
      "eu": 6051,
      "kont": 6052,
      "أعلى": 6053,
      "بحنا": 6054,
      "ذة": 6055,
      "سعر": 6056,
      "غس": 6057,
      "فلق": 6058,
      "مى": 6059,
      "هؤلاء": 6060,
      "ويد": 6061,
      "يبين": 6062,
      "ْتَ": 6063,
      "بيسك": 6064,
      "راا": 6065,
      "قاس": 6066,
      "والص": 6067,
      "يكتب": 6068,
      "يعود": 6069,
      "نوميديا": 6070,
      "للفيديو": 6071,
      "التمور": 6072,
      "متها": 6073,
      "الشري": 6074,
      "علامة": 6075,
      "علامات": 6076,
      "leur": 6077,
      "وتس": 6078,
      "wallah": 6079,
      "ابني": 6080,
      "يسعدك": 6081,
      "جدد": 6082,
      "رضي": 6083,
      "ترزق": 6084,
      "اسمك": 6085,
      "الفرنسي": 6086,
      "خلقك": 6087,
      "يروحو": 6088,
      "يليق": 6089,
      "الاجتما": 6090,
      "gnifique": 6091,
      "LE": 6092,
      "cer": 6093,
      "gle": 6094,
      "pos": 6095,
      "svp": 6096,
      "twa": 6097,
      "tjr": 6098,
      "امثالك": 6099,
      "بقي": 6100,
      "تفر": 6101,
      "تشي": 6102,
      "جوع": 6103,
      "حج": 6104,
      "خن": 6105,
      "زوا": 6106,
      "غال": 6107,
      "لند": 6108,
      "يال": 6109,
      "الطيبين": 6110,
      "يوو": 6111,
      "ميه": 6112,
      "جارية": 6113,
      "شاءلله": 6114,
      "نتفكر": 6115,
      "ستهاش": 6116,
      "ويش": 6117,
      "كانش": 6118,
      "خيرات": 6119,
      "حاسب": 6120,
      "chbab": 6121,
      "متفرج": 6122,
      "حدث": 6123,
      "مثقف": 6124,
      "سكت": 6125,
      "يمد": 6126,
      "war": 6127,
      "وشعب": 6128,
      "dahk": 6129,
      "يخلاص": 6130,
      "عيان": 6131,
      "الخلي": 6132,
      "اللسان": 6133,
      "قالوا": 6134,
      "أوروبا": 6135,
      "خلابة": 6136,
      "التيلي": 6137,
      "لفديو": 6138,
      "خدمو": 6139,
      "بسكو": 6140,
      "مواضيع": 6141,
      "يفرجها": 6142,
      "اليابان": 6143,
      "مازلت": 6144,
      "توجور": 6145,
      "تنتهي": 6146,
      "سواء": 6147,
      "والديكم": 6148,
      "تكنولوجيا": 6149,
      "En": 6150,
      "sin": 6151,
      "zf": 6152,
      "ثقة": 6153,
      "جاني": 6154,
      "ختك": 6155,
      "ذيك": 6156,
      "طوا": 6157,
      "ظلم": 6158,
      "كتل": 6159,
      "وء": 6160,
      "يسب": 6161,
      "الخاص": 6162,
      "نادم": 6163,
      "المدية": 6164,
      "علبالي": 6165,
      "رور": 6166,
      "خوو": 6167,
      "كيلو": 6168,
      "يحس": 6169,
      "الار": 6170,
      "يتعلم": 6171,
      "موعة": 6172,
      "ram": 6173,
      "ديرها": 6174,
      "التمر": 6175,
      "ضحكة": 6176,
      "lich": 6177,
      "يوفقنا": 6178,
      "الصف": 6179,
      "ديروش": 6180,
      "كملوا": 6181,
      "وكبرا": 6182,
      "ادعي": 6183,
      "kada": 6184,
      "kifa": 6185,
      "مختل": 6186,
      "الإسلامية": 6187,
      "يغني": 6188,
      "person": 6189,
      "عجبا": 6190,
      "نتلاقا": 6191,
      "مفهومة": 6192,
      "لبارح": 6193,
      "مفقودة": 6194,
      "معنديش": 6195,
      "travail": 6196,
      "Dz": 6197,
      "hbi": 6198,
      "تْ": 6199,
      "تنف": 6200,
      "خروج": 6201,
      "رعة": 6202,
      "وسو": 6203,
      "الدم": 6204,
      "الزوج": 6205,
      "لاس": 6206,
      "بيس": 6207,
      "بيبي": 6208,
      "المتعة": 6209,
      "خوية": 6210,
      "كيم": 6211,
      "الحكومة": 6212,
      "الاب": 6213,
      "معندو": 6214,
      "lal": 6215,
      "بلنا": 6216,
      "راكت": 6217,
      "متى": 6218,
      "يحفظو": 6219,
      "ملين": 6220,
      "ارى": 6221,
      "ترحم": 6222,
      "طونا": 6223,
      "بياء": 6224,
      "السياحية": 6225,
      "طانيا": 6226,
      "prend": 6227,
      "نكتب": 6228,
      "المناظر": 6229,
      "رواحكم": 6230,
      "طبيعي": 6231,
      "going": 6232,
      "الشيطان": 6233,
      "نحبوكم": 6234,
      "شبعت": 6235,
      "موسى": 6236,
      "لفاز": 6237,
      "تيارت": 6238,
      "aa": 6239,
      "ms": 6240,
      "nor": 6241,
      "rt": 6242,
      "ze": 6243,
      "بغا": 6244,
      "بفارغ": 6245,
      "تلق": 6246,
      "مبد": 6247,
      "نجح": 6248,
      "نصائح": 6249,
      "وٌ": 6250,
      "التك": 6251,
      "واتك": 6252,
      "تاغ": 6253,
      "سلمات": 6254,
      "يحبس": 6255,
      "have": 6256,
      "فاير": 6257,
      "ral": 6258,
      "للشباب": 6259,
      "للسياحة": 6260,
      "الأع": 6261,
      "كثرلنا": 6262,
      "vive": 6263,
      "تخلي": 6264,
      "اخوتي": 6265,
      "نديرلك": 6266,
      "ture": 6267,
      "صدفة": 6268,
      "المغامرات": 6269,
      "نسيم": 6270,
      "مواقع": 6271,
      "طبيق": 6272,
      "كلماتك": 6273,
      "صلاتك": 6274,
      "الوطني": 6275,
      "رَبَّ": 6276,
      "ساهلة": 6277,
      "التصويرية": 6278,
      "Top": 6279,
      "brk": 6280,
      "ges": 6281,
      "jou": 6282,
      "أبدا": 6283,
      "ؤل": 6284,
      "عبا": 6285,
      "فمك": 6286,
      "فدزاير": 6287,
      "مدام": 6288,
      "فيفري": 6289,
      "بيرة": 6290,
      "ماكلة": 6291,
      "منتفرج": 6292,
      "الجمعة": 6293,
      "سلو": 6294,
      "العلا": 6295,
      "اناس": 6296,
      "الاو": 6297,
      "نود": 6298,
      "احفظ": 6299,
      "لمدة": 6300,
      "طاطا": 6301,
      "محبة": 6302,
      "sam": 6303,
      "dik": 6304,
      "تناش": 6305,
      "ors": 6306,
      "اللحم": 6307,
      "تصلي": 6308,
      "هادفة": 6309,
      "تنصح": 6310,
      "وقد": 6311,
      "قاتلي": 6312,
      "اشهار": 6313,
      "خليت": 6314,
      "عاودت": 6315,
      "نتاعي": 6316,
      "القرعة": 6317,
      "صناعة": 6318,
      "Salam": 6319,
      "exp": 6320,
      "achour": 6321,
      "grand": 6322,
      "chwiya": 6323,
      "with": 6324,
      "TA": 6325,
      "oc": 6326,
      "أخلاق": 6327,
      "جزة": 6328,
      "حبا": 6329,
      "سون": 6330,
      "فهاد": 6331,
      "قسم": 6332,
      "مدين": 6333,
      "يهم": 6334,
      "يمات": 6335,
      "ُهُ": 6336,
      "بيد": 6337,
      "واض": 6338,
      "هاو": 6339,
      "ونها": 6340,
      "فرزدق": 6341,
      "كاع": 6342,
      "raw": 6343,
      "نوصل": 6344,
      "جواء": 6345,
      "متحم": 6346,
      "نقعد": 6347,
      "jamais": 6348,
      "quoi": 6349,
      "أوڨروت": 6350,
      "الرعب": 6351,
      "تابعة": 6352,
      "طلعو": 6353,
      "يماك": 6354,
      "زيادة": 6355,
      "أمازيغ": 6356,
      "تلقاه": 6357,
      "عفسة": 6358,
      "الغابة": 6359,
      "واقيل": 6360,
      "التشجيع": 6361,
      "مباشرة": 6362,
      "إفريقيا": 6363,
      "Ki": 6364,
      "The": 6365,
      "gal": 6366,
      "آلَ": 6367,
      "أمي": 6368,
      "تتع": 6369,
      "تبين": 6370,
      "جدة": 6371,
      "حيو": 6372,
      "ضعي": 6373,
      "فهذا": 6374,
      "قبي": 6375,
      "الري": 6376,
      "علان": 6377,
      "حملة": 6378,
      "ميل": 6379,
      "العباد": 6380,
      "لوه": 6381,
      "الاستاذ": 6382,
      "تعني": 6383,
      "شوفي": 6384,
      "اودي": 6385,
      "قلتها": 6386,
      "سبور": 6387,
      "الدمعة": 6388,
      "مشف": 6389,
      "رحاليستا": 6390,
      "لبنات": 6391,
      "الزينة": 6392,
      "جعلها": 6393,
      "الجزاى": 6394,
      "طريقك": 6395,
      "هاذاك": 6396,
      "سلامة": 6397,
      "الْأَ": 6398,
      "زرتها": 6399,
      "سقسي": 6400,
      "ماهوش": 6401,
      "إخواننا": 6402,
      "جيوغرافيك": 6403,
      "رَبَّنَا": 6404,
      "eux": 6405,
      "owa": 6406,
      "pri": 6407,
      "sit": 6408,
      "zak": 6409,
      "بدة": 6410,
      "بقة": 6411,
      "جيدة": 6412,
      "حض": 6413,
      "حشا": 6414,
      "صرف": 6415,
      "عى": 6416,
      "فريق": 6417,
      "لخير": 6418,
      "لَّ": 6419,
      "لبلاصة": 6420,
      "وسل": 6421,
      "انصر": 6422,
      "فيسبوك": 6423,
      "راضي": 6424,
      "الجن": 6425,
      "الجودة": 6426,
      "تيرا": 6427,
      "العشر": 6428,
      "جابلي": 6429,
      "والد": 6430,
      "الكبرى": 6431,
      "الأعلى": 6432,
      "قلنا": 6433,
      "امك": 6434,
      "وجهة": 6435,
      "البنات": 6436,
      "وحدا": 6437,
      "وينتا": 6438,
      "العافية": 6439,
      "عيون": 6440,
      "الطفلة": 6441,
      "دارها": 6442,
      "بسح": 6443,
      "مملكة": 6444,
      "faut": 6445,
      "تعرفو": 6446,
      "المشروع": 6447,
      "ther": 6448,
      "كتبت": 6449,
      "surtout": 6450,
      "خرافي": 6451,
      "الشخصية": 6452,
      "يدومها": 6453,
      "نتوح": 6454,
      "يحفدك": 6455,
      "قبايلي": 6456,
      "شيكور": 6457,
      "podcast": 6458,
      "Wa": 6459,
      "pon": 6460,
      "إي": 6461,
      "اعجبني": 6462,
      "ترف": 6463,
      "ردو": 6464,
      "عدي": 6465,
      "فْ": 6466,
      "كومونتار": 6467,
      "مدير": 6468,
      "نجا": 6469,
      "نرقد": 6470,
      "هبال": 6471,
      "وراء": 6472,
      "ليت": 6473,
      "لاع": 6474,
      "ريج": 6475,
      "المري": 6476,
      "المدير": 6477,
      "تاق": 6478,
      "الجبال": 6479,
      "الجبل": 6480,
      "تيل": 6481,
      "تحر": 6482,
      "تحبس": 6483,
      "العكس": 6484,
      "الامور": 6485,
      "بالصح": 6486,
      "tab": 6487,
      "متأ": 6488,
      "الأمور": 6489,
      "سكرية": 6490,
      "likom": 6491,
      "طاي": 6492,
      "الفل": 6493,
      "البشر": 6494,
      "تشجيع": 6495,
      "del": 6496,
      "diro": 6497,
      "هدوا": 6498,
      "يهبل": 6499,
      "يبكي": 6500,
      "ترد": 6501,
      "طولقة": 6502,
      "نتاعو": 6503,
      "والمسلمين": 6504,
      "قاعدة": 6505,
      "الماضي": 6506,
      "هُمْ": 6507,
      "المعيشة": 6508,
      "موفقة": 6509,
      "المؤمنين": 6510,
      "قعدت": 6511,
      "الفضاء": 6512,
      "معروفة": 6513,
      "كفيفة": 6514,
      "bs": 6515,
      "nsa": 6516,
      "tv": 6517,
      "أبي": 6518,
      "إيجابية": 6519,
      "اتابع": 6520,
      "اواه": 6521,
      "تصل": 6522,
      "خفت": 6523,
      "ردا": 6524,
      "رأس": 6525,
      "طبع": 6526,
      "فد": 6527,
      "قلك": 6528,
      "لمو": 6529,
      "لبعض": 6530,
      "يغي": 6531,
      "لاا": 6532,
      "ماكش": 6533,
      "دارة": 6534,
      "كاتش": 6535,
      "تعك": 6536,
      "فاك": 6537,
      "ساهل": 6538,
      "سائل": 6539,
      "chouf": 6540,
      "لامك": 6541,
      "tage": 6542,
      "انتظار": 6543,
      "متر": 6544,
      "الأن": 6545,
      "anné": 6546,
      "لعين": 6547,
      "طايح": 6548,
      "أخيرا": 6549,
      "كيفكيف": 6550,
      "commer": 6551,
      "الواسعة": 6552,
      "howa": 6553,
      "نظيف": 6554,
      "ننجح": 6555,
      "حسناتكم": 6556,
      "نخمم": 6557,
      "puis": 6558,
      "وجزاك": 6559,
      "BA": 6560,
      "Lo": 6561,
      "SA": 6562,
      "Too": 6563,
      "cen": 6564,
      "tw": 6565,
      "ألك": 6566,
      "أخوكم": 6567,
      "تسم": 6568,
      "رآ": 6569,
      "صَ": 6570,
      "طعام": 6571,
      "قهوة": 6572,
      "لذلك": 6573,
      "مخل": 6574,
      "مفيهاش": 6575,
      "وعليكم": 6576,
      "وراح": 6577,
      "وتعالى": 6578,
      "يغير": 6579,
      "فيزيون": 6580,
      "ماهي": 6581,
      "ديراكت": 6582,
      "الملا": 6583,
      "المقد": 6584,
      "عاب": 6585,
      "عاك": 6586,
      "سلسة": 6587,
      "الاحترام": 6588,
      "ويزيد": 6589,
      "تاعه": 6590,
      "فايدة": 6591,
      "لقنا": 6592,
      "بعضا": 6593,
      "برز": 6594,
      "الكومن": 6595,
      "يقعد": 6596,
      "السبب": 6597,
      "السلامة": 6598,
      "متألق": 6599,
      "قتنا": 6600,
      "النظا": 6601,
      "نعطيك": 6602,
      "فلوقات": 6603,
      "خرجة": 6604,
      "جوان": 6605,
      "حسني": 6606,
      "المسؤولي": 6607,
      "لأنها": 6608,
      "جليزي": 6609,
      "fort": 6610,
      "مِن": 6611,
      "فندق": 6612,
      "very": 6613,
      "رْض": 6614,
      "النصيحة": 6615,
      "تنساش": 6616,
      "youtube": 6617,
      "خنشلة": 6618,
      "ite": 6619,
      "ywe": 6620,
      "بتو": 6621,
      "شن": 6622,
      "شمة": 6623,
      "لط": 6624,
      "حمين": 6625,
      "العز": 6626,
      "العرس": 6627,
      "جايا": 6628,
      "يدك": 6629,
      "فقر": 6630,
      "فقير": 6631,
      "mani": 6632,
      "خيي": 6633,
      "taire": 6634,
      "علابيها": 6635,
      "ناسب": 6636,
      "كرون": 6637,
      "سوري": 6638,
      "الغالية": 6639,
      "mois": 6640,
      "نحبها": 6641,
      "شفتهم": 6642,
      "المنتوج": 6643,
      "مريضة": 6644,
      "toujours": 6645,
      "تماما": 6646,
      "from": 6647,
      "نتبعو": 6648,
      "تعليقك": 6649,
      "احترافي": 6650,
      "سيونال": 6651,
      "كوكب": 6652,
      "لهجتنا": 6653,
      "ممنوع": 6654,
      "مانتفرج": 6655,
      "dza": 6656,
      "fu": 6657,
      "rf": 6658,
      "wch": 6659,
      "yi": 6660,
      "ée": 6661,
      "أمة": 6662,
      "تتق": 6663,
      "تمث": 6664,
      "تمام": 6665,
      "جور": 6666,
      "حظ": 6667,
      "حطو": 6668,
      "قرة": 6669,
      "كأس": 6670,
      "نظر": 6671,
      "وتو": 6672,
      "يفو": 6673,
      "الَّ": 6674,
      "فيل": 6675,
      "مامة": 6676,
      "مافيه": 6677,
      "باسم": 6678,
      "عاف": 6679,
      "روها": 6680,
      "ولق": 6681,
      "ورز": 6682,
      "متنا": 6683,
      "كثرو": 6684,
      "قوس": 6685,
      "رحل": 6686,
      "dia": 6687,
      "وشمن": 6688,
      "واحسن": 6689,
      "يضحكو": 6690,
      "دراما": 6691,
      "فكاهة": 6692,
      "Macha": 6693,
      "تسافر": 6694,
      "البرد": 6695,
      "عفوي": 6696,
      "ايجابي": 6697,
      "حكيم": 6698,
      "يعيشك": 6699,
      "حترافية": 6700,
      "Khoya": 6701,
      "pays": 6702,
      "eur": 6703,
      "rbi": 6704,
      "use": 6705,
      "أكيد": 6706,
      "اتوب": 6707,
      "بفف": 6708,
      "دحك": 6709,
      "دقائق": 6710,
      "زح": 6711,
      "عذاب": 6712,
      "قض": 6713,
      "لراه": 6714,
      "لجميع": 6715,
      "مذ": 6716,
      "ورية": 6717,
      "لاتك": 6718,
      "راية": 6719,
      "واجب": 6720,
      "يرك": 6721,
      "تاوع": 6722,
      "الحلم": 6723,
      "عنك": 6724,
      "موتو": 6725,
      "النصائح": 6726,
      "lel": 6727,
      "البح": 6728,
      "البرب": 6729,
      "bark": 6730,
      "غيير": 6731,
      "مجهود": 6732,
      "مسة": 6733,
      "رضى": 6734,
      "اكتب": 6735,
      "fad": 6736,
      "صحابي": 6737,
      "تفكير": 6738,
      "مزيا": 6739,
      "يجازيكم": 6740,
      "hommes": 6741,
      "سماط": 6742,
      "ننصحك": 6743,
      "الفنانين": 6744,
      "الافلام": 6745,
      "33": 6746,
      "47": 6747,
      "55": 6748,
      "Mi": 6749,
      "ds": 6750,
      "fer": 6751,
      "wil": 6752,
      "ép": 6753,
      "ارجع": 6754,
      "افتخر": 6755,
      "حسي": 6756,
      "ذرا": 6757,
      "ذِينَ": 6758,
      "فسة": 6759,
      "قلق": 6760,
      "نلقى": 6761,
      "يـ": 6762,
      "الزا": 6763,
      "ماعليش": 6764,
      "ديالو": 6765,
      "ينفع": 6766,
      "جابية": 6767,
      "جامعة": 6768,
      "الاسم": 6769,
      "قاتك": 6770,
      "ربحنا": 6771,
      "فاتو": 6772,
      "ومزيد": 6773,
      "اوت": 6774,
      "الكتر": 6775,
      "لعبو": 6776,
      "reb": 6777,
      "وجد": 6778,
      "نقد": 6779,
      "سوله": 6780,
      "rir": 6781,
      "اعمال": 6782,
      "بعدها": 6783,
      "quand": 6784,
      "قنات": 6785,
      "تصدق": 6786,
      "نفسها": 6787,
      "اشهد": 6788,
      "اشياء": 6789,
      "sim": 6790,
      "قصدي": 6791,
      "مشاعر": 6792,
      "الفرق": 6793,
      "ظروا": 6794,
      "الذه": 6795,
      "بادرة": 6796,
      "بيناتنا": 6797,
      "تقدمه": 6798,
      "معرفة": 6799,
      "مهابل": 6800,
      "beaucoup": 6801,
      "وااصل": 6802,
      "musique": 6803,
      "ارجوك": 6804,
      "Be": 6805,
      "Bi": 6806,
      "tl": 6807,
      "أعرف": 6808,
      "تخل": 6809,
      "تواصل": 6810,
      "تدع": 6811,
      "تجوز": 6812,
      "جوي": 6813,
      "جراح": 6814,
      "خدا": 6815,
      "دوار": 6816,
      "رسم": 6817,
      "ضم": 6818,
      "عطا": 6819,
      "نيو": 6820,
      "يبة": 6821,
      "يسمى": 6822,
      "انستغرام": 6823,
      "ماشا": 6824,
      "ونيش": 6825,
      "المحت": 6826,
      "كيش": 6827,
      "تيه": 6828,
      "كاري": 6829,
      "اناش": 6830,
      "الامر": 6831,
      "تعرفي": 6832,
      "ساطير": 6833,
      "chof": 6834,
      "جبد": 6835,
      "أننا": 6836,
      "قلبو": 6837,
      "ابناء": 6838,
      "dah": 6839,
      "مسخر": 6840,
      "زوجي": 6841,
      "bezaf": 6842,
      "تفتح": 6843,
      "عشرين": 6844,
      "unes": 6845,
      "تستطيع": 6846,
      "هكاك": 6847,
      "مساكن": 6848,
      "قدرتش": 6849,
      "بأبوني": 6850,
      "تساعد": 6851,
      "ellement": 6852,
      "الآية": 6853,
      "بخبخبخ": 6854,
      "مشكو": 6855,
      "نمووت": 6856,
      "CH": 6857,
      "gla": 6858,
      "أقل": 6859,
      "اور": 6860,
      "تبا": 6861,
      "تصحيح": 6862,
      "ثبت": 6863,
      "جون": 6864,
      "ذف": 6865,
      "فشباب": 6866,
      "قبة": 6867,
      "ملقيت": 6868,
      "والجزائر": 6869,
      "وخلي": 6870,
      "فيس": 6871,
      "مايت": 6872,
      "المُ": 6873,
      "الحراك": 6874,
      "جابو": 6875,
      "معدل": 6876,
      "ستق": 6877,
      "hallah": 6878,
      "سائ": 6879,
      "برعاية": 6880,
      "تقل": 6881,
      "رمز": 6882,
      "احوال": 6883,
      "يقلك": 6884,
      "النقد": 6885,
      "تهدرو": 6886,
      "عدت": 6887,
      "تبسة": 6888,
      "خصني": 6889,
      "اتفرج": 6890,
      "مسجد": 6891,
      "وسهلا": 6892,
      "تخلاص": 6893,
      "الرد": 6894,
      "وقيل": 6895,
      "أيها": 6896,
      "مراض": 6897,
      "khal": 6898,
      "khawti": 6899,
      "koul": 6900,
      "محتوا": 6901,
      "المجهود": 6902,
      "شيخنا": 6903,
      "ثناء": 6904,
      "القارة": 6905,
      "لخضر": 6906,
      "mdr": 6907,
      "شرفتنا": 6908,
      "بلاصتو": 6909,
      "الحقيقية": 6910,
      "تثقي": 6911,
      "31": 6912,
      "book": 6913,
      "cation": 6914,
      "افظ": 6915,
      "ابدع": 6916,
      "تطلب": 6917,
      "تفوت": 6918,
      "تنشر": 6919,
      "جنان": 6920,
      "خله": 6921,
      "سعادة": 6922,
      "شور": 6923,
      "صاد": 6924,
      "فإن": 6925,
      "فكار": 6926,
      "قبره": 6927,
      "لشعب": 6928,
      "وروح": 6929,
      "يرية": 6930,
      "ڨري": 6931,
      "هارات": 6932,
      "عاص": 6933,
      "داث": 6934,
      "كاتب": 6935,
      "العودة": 6936,
      "واليس": 6937,
      "سار": 6938,
      "main": 6939,
      "القص": 6940,
      "القيوم": 6941,
      "الكرام": 6942,
      "احبكم": 6943,
      "أنهم": 6944,
      "بدموع": 6945,
      "الوسط": 6946,
      "تشبع": 6947,
      "كرشي": 6948,
      "وشبيه": 6949,
      "وسع": 6950,
      "زعف": 6951,
      "اكتشفت": 6952,
      "نفسية": 6953,
      "يصلي": 6954,
      "قرأ": 6955,
      "قلتلو": 6956,
      "اقرب": 6957,
      "الراحمين": 6958,
      "لايين": 6959,
      "بنيبن": 6960,
      "vais": 6961,
      "الاسلامية": 6962,
      "الفلوڨ": 6963,
      "نتلاقاو": 6964,
      "اللحظة": 6965,
      "bladna": 6966,
      "الرياض": 6967,
      "Toop": 6968,
      "DN": 6969,
      "akhi": 6970,
      "ben": 6971,
      "dy": 6972,
      "gr": 6973,
      "gol": 6974,
      "ler": 6975,
      "met": 6976,
      "أولاد": 6977,
      "أظن": 6978,
      "اوم": 6979,
      "بكثير": 6980,
      "خالتي": 6981,
      "زهرة": 6982,
      "سيكون": 6983,
      "صيف": 6984,
      "عيل": 6985,
      "قصر": 6986,
      "مرف": 6987,
      "مقل": 6988,
      "مقت": 6989,
      "نصحح": 6990,
      "هزاء": 6991,
      "وظ": 6992,
      "يخويا": 6993,
      "ُوا": 6994,
      "الهدف": 6995,
      "ديني": 6996,
      "المك": 6997,
      "المعل": 6998,
      "المدن": 6999,
      "ولكل": 7000,
      "ورحم": 7001,
      "ههخخ": 7002,
      "جاتني": 7003,
      "الاخرى": 7004,
      "lat": 7005,
      "يعيط": 7006,
      "بعيدا": 7007,
      "يقولي": 7008,
      "خافو": 7009,
      "البس": 7010,
      "ارزق": 7011,
      "رحنا": 7012,
      "عدنان": 7013,
      "العار": 7014,
      "jaya": 7015,
      "تتمنا": 7016,
      "غفرة": 7017,
      "وَمَ": 7018,
      "أستاذ": 7019,
      "قريبة": 7020,
      "jeunes": 7021,
      "youm": 7022,
      "حبيبتي": 7023,
      "مانيفيكوس": 7024,
      "mout": 7025,
      "ويجعلك": 7026,
      "جانفي": 7027,
      "stay": 7028,
      "الإنجليزية": 7029,
      "الاغواط": 7030,
      "ميمونة": 7031,
      "وافقني": 7032,
      "إِلاَّ": 7033,
      "Ben": 7034,
      "ME": 7035,
      "tous": 7036,
      "vé": 7037,
      "بفضل": 7038,
      "بقوة": 7039,
      "ةى": 7040,
      "تذكر": 7041,
      "جَ": 7042,
      "جلا": 7043,
      "حجا": 7044,
      "دْ": 7045,
      "درب": 7046,
      "زكر": 7047,
      "سبع": 7048,
      "سهل": 7049,
      "صيام": 7050,
      "طموح": 7051,
      "غلي": 7052,
      "غدا": 7053,
      "هز": 7054,
      "وهنا": 7055,
      "ىء": 7056,
      "يذ": 7057,
      "الڨ": 7058,
      "الولاية": 7059,
      "فيش": 7060,
      "لهذه": 7061,
      "ماا": 7062,
      "ديش": 7063,
      "باوي": 7064,
      "علانات": 7065,
      "روط": 7066,
      "الجو": 7067,
      "العظ": 7068,
      "تعرض": 7069,
      "تعيي": 7070,
      "magnifique": 7071,
      "حتش": 7072,
      "متش": 7073,
      "الشه": 7074,
      "يحفظلك": 7075,
      "الصحيح": 7076,
      "عملو": 7077,
      "nak": 7078,
      "khe": 7079,
      "لبسكرة": 7080,
      "ria": 7081,
      "الطبيع": 7082,
      "نتفرجه": 7083,
      "ally": 7084,
      "زعج": 7085,
      "تمور": 7086,
      "تصر": 7087,
      "اختكم": 7088,
      "أحسنت": 7089,
      "toons": 7090,
      "خدرات": 7091,
      "اصد": 7092,
      "يصور": 7093,
      "تجعل": 7094,
      "واهب": 7095,
      "خلاصت": 7096,
      "مازالني": 7097,
      "باينا": 7098,
      "الجامعة": 7099,
      "فاميليا": 7100,
      "cartoons": 7101,
      "أنيس": 7102,
      "الصغيرة": 7103,
      "الوريا": 7104,
      "ويرزقك": 7105,
      "التجارة": 7106,
      "جايبها": 7107,
      "zaky": 7108,
      "RE": 7109,
      "bzaf": 7110,
      "ow": 7111,
      "بغير": 7112,
      "بانت": 7113,
      "بنة": 7114,
      "تضع": 7115,
      "جهل": 7116,
      "صلات": 7117,
      "ـه": 7118,
      "لدرجة": 7119,
      "ممثلة": 7120,
      "وهل": 7121,
      "الخاصة": 7122,
      "انتاع": 7123,
      "لار": 7124,
      "ماعندو": 7125,
      "مادام": 7126,
      "راسو": 7127,
      "سلال": 7128,
      "حمر": 7129,
      "جاتك": 7130,
      "بالشفاء": 7131,
      "تعال": 7132,
      "ملح": 7133,
      "tat": 7134,
      "الأكل": 7135,
      "جيبو": 7136,
      "هلول": 7137,
      "نحاو": 7138,
      "نسنا": 7139,
      "نسأل": 7140,
      "خصنا": 7141,
      "اعمل": 7142,
      "يجيك": 7143,
      "واحي": 7144,
      "صاري": 7145,
      "شفى": 7146,
      "خطير": 7147,
      "خطرات": 7148,
      "شريكي": 7149,
      "شيئا": 7150,
      "اللَّهِ": 7151,
      "الدراما": 7152,
      "بقاش": 7153,
      "قتلتوني": 7154,
      "Kha": 7155,
      "grou": 7156,
      "ion": 7157,
      "jit": 7158,
      "kra": 7159,
      "ld": 7160,
      "جملة": 7161,
      "حِ": 7162,
      "حير": 7163,
      "سورة": 7164,
      "ضيا": 7165,
      "طبق": 7166,
      "عمة": 7167,
      "عقل": 7168,
      "قوي": 7169,
      "كرام": 7170,
      "لمع": 7171,
      "نفو": 7172,
      "وتكون": 7173,
      "اللق": 7174,
      "البلاصة": 7175,
      "انني": 7176,
      "لاك": 7177,
      "لاهل": 7178,
      "ياسين": 7179,
      "باخ": 7180,
      "ينصر": 7181,
      "زادت": 7182,
      "شايف": 7183,
      "كارة": 7184,
      "العسل": 7185,
      "الاطفال": 7186,
      "تكره": 7187,
      "درهم": 7188,
      "نورية": 7189,
      "للعالمية": 7190,
      "رمنا": 7191,
      "سنى": 7192,
      "الأماكن": 7193,
      "نحيت": 7194,
      "لمليون": 7195,
      "بدراهم": 7196,
      "البساطة": 7197,
      "iste": 7198,
      "لحلقة": 7199,
      "نتاوعك": 7200,
      "الطرق": 7201,
      "الرحمة": 7202,
      "الزبل": 7203,
      "entre": 7204,
      "tions": 7205,
      "قريش": 7206,
      "شعبها": 7207,
      "وقتها": 7208,
      "تجرب": 7209,
      "الفيسبوك": 7210,
      "تستعمل": 7211,
      "لأهل": 7212,
      "الكومي": 7213,
      "المغربية": 7214,
      "دخول": 7215,
      "فاشهدوا": 7216,
      "قائنا": 7217,
      "psq": 7218,
      "غلطت": 7219,
      "نورمالمون": 7220,
      "يوتوبرز": 7221,
      "الصالحة": 7222,
      "الدراسة": 7223,
      "تغيير": 7224,
      "الجزايريين": 7225,
      "premi": 7226,
      "الفلسط": 7227,
      "An": 7228,
      "Na": 7229,
      "cit": 7230,
      "lma": 7231,
      "lmo": 7232,
      "mm": 7233,
      "أْ": 7234,
      "أبناء": 7235,
      "اقول": 7236,
      "بالعتروس": 7237,
      "تتعب": 7238,
      "خري": 7239,
      "سيو": 7240,
      "سرق": 7241,
      "سبيل": 7242,
      "شرا": 7243,
      "عدا": 7244,
      "غلو": 7245,
      "ـمـ": 7246,
      "قرية": 7247,
      "مكنتش": 7248,
      "مطولش": 7249,
      "هوي": 7250,
      "يمن": 7251,
      "ڨول": 7252,
      "الخل": 7253,
      "الخاوة": 7254,
      "لهنا": 7255,
      "مارات": 7256,
      "وابوني": 7257,
      "ونوري": 7258,
      "الملي": 7259,
      "الميك": 7260,
      "توفي": 7261,
      "الحس": 7262,
      "ويجعله": 7263,
      "يعيي": 7264,
      "فاج": 7265,
      "هوية": 7266,
      "ramdan": 7267,
      "درع": 7268,
      "الكر": 7269,
      "الكفار": 7270,
      "التالي": 7271,
      "التلفاز": 7272,
      "متلك": 7273,
      "معات": 7274,
      "طاش": 7275,
      "leh": 7276,
      "زيدو": 7277,
      "قوه": 7278,
      "مشرية": 7279,
      "الطعام": 7280,
      "char": 7281,
      "اللخر": 7282,
      "nek": 7283,
      "طرش": 7284,
      "جداا": 7285,
      "طوة": 7286,
      "يصبح": 7287,
      "متابعتك": 7288,
      "أعمال": 7289,
      "mourad": 7290,
      "محاينك": 7291,
      "ويعافيك": 7292,
      "lazem": 7293,
      "ويجعلو": 7294,
      "النظافة": 7295,
      "60": 7296,
      "We": 7297,
      "bu": 7298,
      "cro": 7299,
      "jel": 7300,
      "sma": 7301,
      "تبي": 7302,
      "تضرب": 7303,
      "حديث": 7304,
      "خيا": 7305,
      "خول": 7306,
      "زهر": 7307,
      "سعد": 7308,
      "شبه": 7309,
      "طرا": 7310,
      "طحت": 7311,
      "ظحك": 7312,
      "عهه": 7313,
      "فالشباب": 7314,
      "كالي": 7315,
      "ننسا": 7316,
      "يرين": 7317,
      "الخاطر": 7318,
      "الهاتف": 7319,
      "لاوة": 7320,
      "بيوت": 7321,
      "ديان": 7322,
      "وارحم": 7323,
      "وائل": 7324,
      "يرزقنا": 7325,
      "كيتش": 7326,
      "يحقق": 7327,
      "لوجه": 7328,
      "تكذب": 7329,
      "ويطول": 7330,
      "موم": 7331,
      "هوب": 7332,
      "الأخرى": 7333,
      "ضحكنا": 7334,
      "ance": 7335,
      "liya": 7336,
      "خايف": 7337,
      "دقيق": 7338,
      "كنتو": 7339,
      "نفتخر": 7340,
      "tet": 7341,
      "غيث": 7342,
      "نتفرجها": 7343,
      "تترك": 7344,
      "الرزق": 7345,
      "يفعل": 7346,
      "عرشك": 7347,
      "قولولي": 7348,
      "bez": 7349,
      "veau": 7350,
      "سياحي": 7351,
      "اخوي": 7352,
      "قصير": 7353,
      "فسهم": 7354,
      "طعت": 7355,
      "parti": 7356,
      "البراني": 7357,
      "بسيف": 7358,
      "قداش": 7359,
      "لديه": 7360,
      "لحمي": 7361,
      "حقيقي": 7362,
      "يكملك": 7363,
      "التجربة": 7364,
      "adore": 7365,
      "bsah": 7366,
      "belle": 7367,
      "gam": 7368,
      "non": 7369,
      "oya": 7370,
      "pen": 7371,
      "ws": 7372,
      "ذرك": 7373,
      "شش": 7374,
      "فلك": 7375,
      "فالعالم": 7376,
      "قين": 7377,
      "كذا": 7378,
      "نلحق": 7379,
      "وانشاء": 7380,
      "روضة": 7381,
      "الجيش": 7382,
      "جاعة": 7383,
      "معمر": 7384,
      "ستة": 7385,
      "ستاني": 7386,
      "han": 7387,
      "haba": 7388,
      "las": 7389,
      "بلماضي": 7390,
      "بوكم": 7391,
      "حاط": 7392,
      "حاير": 7393,
      "القدر": 7394,
      "رمين": 7395,
      "الكذب": 7396,
      "الأخلاق": 7397,
      "جمالها": 7398,
      "let": 7399,
      "روحها": 7400,
      "الصة": 7401,
      "biha": 7402,
      "كوب": 7403,
      "meme": 7404,
      "فلان": 7405,
      "film": 7406,
      "زعمة": 7407,
      "ars": 7408,
      "تمبر": 7409,
      "الرئ": 7410,
      "الزمان": 7411,
      "جداً": 7412,
      "هاذوك": 7413,
      "قصى": 7414,
      "مزلت": 7415,
      "مريكان": 7416,
      "djawad": 7417,
      "البيض": 7418,
      "سقما": 7419,
      "bzzf": 7420,
      "تزورها": 7421,
      "رايكم": 7422,
      "نرال": 7423,
      "سبيطار": 7424,
      "سويسرا": 7425,
      "البلاء": 7426,
      "طبيعية": 7427,
      "النظام": 7428,
      "هاايل": 7429,
      "اللَّهُ": 7430,
      "44": 7431,
      "Fran": 7432,
      "bna": 7433,
      "pé": 7434,
      "إنا": 7435,
      "اكون": 7436,
      "اطلق": 7437,
      "ترح": 7438,
      "تلاق": 7439,
      "حبوش": 7440,
      "خرو": 7441,
      "طط": 7442,
      "طيش": 7443,
      "عيا": 7444,
      "غزة": 7445,
      "قبال": 7446,
      "لـ": 7447,
      "لزم": 7448,
      "ملو": 7449,
      "نجو": 7450,
      "هّ": 7451,
      "هول": 7452,
      "يغادر": 7453,
      "الرق": 7454,
      "الماتش": 7455,
      "انواع": 7456,
      "ياجواد": 7457,
      "منور": 7458,
      "منشوف": 7459,
      "ركات": 7460,
      "تيم": 7461,
      "كاف": 7462,
      "الحوار": 7463,
      "ستكون": 7464,
      "بالغ": 7465,
      "تعريف": 7466,
      "برحمة": 7467,
      "يقال": 7468,
      "مثلو": 7469,
      "بدى": 7470,
      "عمتك": 7471,
      "خرطي": 7472,
      "وشحال": 7473,
      "نقي": 7474,
      "jay": 7475,
      "يبانو": 7476,
      "اكتشف": 7477,
      "مكانيات": 7478,
      "موتانا": 7479,
      "خلية": 7480,
      "رحمك": 7481,
      "خطيرة": 7482,
      "نبول": 7483,
      "زورها": 7484,
      "تجري": 7485,
      "لعزيزة": 7486,
      "أَنْ": 7487,
      "عمره": 7488,
      "بززاف": 7489,
      "بريطانيا": 7490,
      "بيتزا": 7491,
      "الفديوهات": 7492,
      "إِلَّا": 7493,
      "أقسم": 7494,
      "الانترنت": 7495,
      "كبرت": 7496,
      "mliha": 7497,
      "mazal": 7498,
      "الْأَرْض": 7499,
      "Rana": 7500,
      "dh": 7501,
      "tb": 7502,
      "امة": 7503,
      "اسوء": 7504,
      "تسل": 7505,
      "تخلط": 7506,
      "رهم": 7507,
      "شيو": 7508,
      "شنو": 7509,
      "شرات": 7510,
      "صبا": 7511,
      "طرة": 7512,
      "طبيب": 7513,
      "مراه": 7514,
      "نمشي": 7515,
      "هان": 7516,
      "يضع": 7517,
      "اللا": 7518,
      "الرب": 7519,
      "البل": 7520,
      "ناقصة": 7521,
      "رابع": 7522,
      "منقدرش": 7523,
      "ريرة": 7524,
      "عادية": 7525,
      "روقة": 7526,
      "الجرس": 7527,
      "صحوركم": 7528,
      "سلعة": 7529,
      "الاكل": 7530,
      "الامل": 7531,
      "lar": 7532,
      "يعتبر": 7533,
      "دوناف": 7534,
      "cher": 7535,
      "الكبار": 7536,
      "التن": 7537,
      "السخ": 7538,
      "متزوج": 7539,
      "سبتمبر": 7540,
      "النية": 7541,
      "محبي": 7542,
      "salam": 7543,
      "مسح": 7544,
      "سبحانو": 7545,
      "ort": 7546,
      "نشوفهم": 7547,
      "ass": 7548,
      "الرقاد": 7549,
      "جعك": 7550,
      "مغامرات": 7551,
      "الماريكان": 7552,
      "مصدر": 7553,
      "نظن": 7554,
      "التحويسة": 7555,
      "مؤثر": 7556,
      "التقدير": 7557,
      "تجارة": 7558,
      "الشعبي": 7559,
      "برحمته": 7560,
      "الحيوانات": 7561,
      "Mourad": 7562,
      "YA": 7563,
      "bcp": 7564,
      "jdid": 7565,
      "nel": 7566,
      "és": 7567,
      "آمَ": 7568,
      "أصحاب": 7569,
      "اصل": 7570,
      "بنفس": 7571,
      "جري": 7572,
      "خور": 7573,
      "رما": 7574,
      "سفي": 7575,
      "سيت": 7576,
      "شوارع": 7577,
      "قمت": 7578,
      "قديمة": 7579,
      "لسان": 7580,
      "لدزاير": 7581,
      "نعاودو": 7582,
      "وتك": 7583,
      "انان": 7584,
      "ليشة": 7585,
      "مايعرف": 7586,
      "واكثر": 7587,
      "واحنا": 7588,
      "ونصف": 7589,
      "المتو": 7590,
      "المعنى": 7591,
      "نيفو": 7592,
      "الاخر": 7593,
      "ربى": 7594,
      "يدر": 7595,
      "والتقدير": 7596,
      "يتهم": 7597,
      "ساهم": 7598,
      "سيف": 7599,
      "الشتاء": 7600,
      "خاوا": 7601,
      "محب": 7602,
      "محبوب": 7603,
      "الصيام": 7604,
      "tique": 7605,
      "بهد": 7606,
      "بهدل": 7607,
      "يسجد": 7608,
      "العاشو": 7609,
      "غاز": 7610,
      "تمنا": 7611,
      "تصبح": 7612,
      "kamel": 7613,
      "أسعد": 7614,
      "votre": 7615,
      "يستركم": 7616,
      "جماال": 7617,
      "الواد": 7618,
      "قارنة": 7619,
      "مانينا": 7620,
      "هدرتك": 7621,
      "داءة": 7622,
      "مهمة": 7623,
      "quipe": 7624,
      "محافظ": 7625,
      "لولاية": 7626,
      "حلمك": 7627,
      "كوريا": 7628,
      "شواكر": 7629,
      "ألمانيا": 7630,
      "80": 7631,
      "Et": 7632,
      "din": 7633,
      "hta": 7634,
      "kin": 7635,
      "mom": 7636,
      "nf": 7637,
      "أمن": 7638,
      "إع": 7639,
      "اروح": 7640,
      "ثمر": 7641,
      "ثانيا": 7642,
      "خراج": 7643,
      "دني": 7644,
      "سس": 7645,
      "فهل": 7646,
      "كذ": 7647,
      "كوا": 7648,
      "لأمريكا": 7649,
      "مظ": 7650,
      "هورة": 7651,
      "وعدد": 7652,
      "ليين": 7653,
      "رادة": 7654,
      "ونتفرج": 7655,
      "يرضى": 7656,
      "المقبل": 7657,
      "ربين": 7658,
      "تيها": 7659,
      "لكش": 7660,
      "يدعي": 7661,
      "ouk": 7662,
      "فادو": 7663,
      "سيلي": 7664,
      "القوة": 7665,
      "سمحت": 7666,
      "يقبل": 7667,
      "الأمل": 7668,
      "لمورال": 7669,
      "الصدقة": 7670,
      "bara": 7671,
      "ايها": 7672,
      "مانقدرش": 7673,
      "نفسو": 7674,
      "دينية": 7675,
      "اجتما": 7676,
      "الخرجة": 7677,
      "افلام": 7678,
      "الرَّ": 7679,
      "عينيك": 7680,
      "جبنيش": 7681,
      "باكيا": 7682,
      "hichem": 7683,
      "لأني": 7684,
      "يجيبو": 7685,
      "بيلال": 7686,
      "مرضى": 7687,
      "يهديهم": 7688,
      "نضال": 7689,
      "نتمناو": 7690,
      "أهله": 7691,
      "أغلب": 7692,
      "trop": 7693,
      "رخيس": 7694,
      "معندوش": 7695,
      "Al": 7696,
      "his": 7697,
      "nhar": 7698,
      "être": 7699,
      "أولا": 7700,
      "ئج": 7701,
      "اساس": 7702,
      "ارفع": 7703,
      "بقات": 7704,
      "ثمن": 7705,
      "ثقي": 7706,
      "حدوش": 7707,
      "صعيب": 7708,
      "ضرة": 7709,
      "طوال": 7710,
      "غد": 7711,
      "غلق": 7712,
      "فالك": 7713,
      "لبي": 7714,
      "مشو": 7715,
      "نسب": 7716,
      "يسم": 7717,
      "يخاف": 7718,
      "الشك": 7719,
      "الزي": 7720,
      "انَ": 7721,
      "فيسور": 7722,
      "واخر": 7723,
      "بامتياز": 7724,
      "ونج": 7725,
      "ونزيد": 7726,
      "ونشالله": 7727,
      "المث": 7728,
      "ولوا": 7729,
      "ورمضان": 7730,
      "الجهل": 7731,
      "ركي": 7732,
      "صحيحة": 7733,
      "حمل": 7734,
      "ميلة": 7735,
      "العصر": 7736,
      "الحرام": 7737,
      "جاع": 7738,
      "الاخلاق": 7739,
      "ويك": 7740,
      "يعين": 7741,
      "سيم": 7742,
      "للخير": 7743,
      "القبائل": 7744,
      "inter": 7745,
      "مرتو": 7746,
      "أنظروا": 7747,
      "البركة": 7748,
      "روحش": 7749,
      "قولهم": 7750,
      "لناش": 7751,
      "مانة": 7752,
      "rib": 7753,
      "اعيش": 7754,
      "روسة": 7755,
      "its": 7756,
      "نساوش": 7757,
      "انشاءالله": 7758,
      "ures": 7759,
      "شبابنا": 7760,
      "تعرفش": 7761,
      "فريد": 7762,
      "يطلق": 7763,
      "حساس": 7764,
      "صوته": 7765,
      "تزوجت": 7766,
      "تهلاو": 7767,
      "مولاتي": 7768,
      "ywf": 7769,
      "ننتظر": 7770,
      "الجزيرة": 7771,
      "ywef": 7772,
      "70": 7773,
      "Tha": 7774,
      "iya": 7775,
      "kar": 7776,
      "sans": 7777,
      "أُ": 7778,
      "أمام": 7779,
      "اقوى": 7780,
      "برات": 7781,
      "حبك": 7782,
      "خشو": 7783,
      "شموتي": 7784,
      "فی": 7785,
      "كذالك": 7786,
      "متاع": 7787,
      "مديرش": 7788,
      "ندا": 7789,
      "يفوت": 7790,
      "يوافقني": 7791,
      "التكنولوجيا": 7792,
      "انور": 7793,
      "بيني": 7794,
      "مافي": 7795,
      "ديدي": 7796,
      "منتوج": 7797,
      "واغفر": 7798,
      "ريبي": 7799,
      "ينغ": 7800,
      "ينحي": 7801,
      "المدر": 7802,
      "زايد": 7803,
      "الجيل": 7804,
      "نيه": 7805,
      "تحواس": 7806,
      "كاملين": 7807,
      "الحبس": 7808,
      "الحمام": 7809,
      "جاهل": 7810,
      "معسكري": 7811,
      "يدخلو": 7812,
      "بالدين": 7813,
      "ومت": 7814,
      "ومش": 7815,
      "غيرك": 7816,
      "احلا": 7817,
      "tant": 7818,
      "لعرب": 7819,
      "regar": 7820,
      "ولينا": 7821,
      "طارق": 7822,
      "تبغي": 7823,
      "ted": 7824,
      "سوس": 7825,
      "عييت": 7826,
      "عوض": 7827,
      "مجتمع": 7828,
      "غاشي": 7829,
      "علمك": 7830,
      "الخلو": 7831,
      "سطة": 7832,
      "ase": 7833,
      "يعطيه": 7834,
      "اصبحت": 7835,
      "قرآن": 7836,
      "السيارات": 7837,
      "الرحلات": 7838,
      "مورال": 7839,
      "conten": 7840,
      "دراسة": 7841,
      "wila": 7842,
      "تلاف": 7843,
      "Hadi": 7844,
      "رزقك": 7845,
      "تنتقد": 7846,
      "لولاد": 7847,
      "jbni": 7848,
      "الخطرة": 7849,
      "Anes": 7850,
      "fre": 7851,
      "hya": 7852,
      "lt": 7853,
      "wis": 7854,
      "yo": 7855,
      "أكل": 7856,
      "أقول": 7857,
      "بسب": 7858,
      "تبو": 7859,
      "ذَ": 7860,
      "سؤ": 7861,
      "طلا": 7862,
      "عرس": 7863,
      "فالله": 7864,
      "قبلو": 7865,
      "قضية": 7866,
      "كسي": 7867,
      "مبت": 7868,
      "ندم": 7869,
      "ِكَ": 7870,
      "التعب": 7871,
      "لايف": 7872,
      "ديز": 7873,
      "منراست": 7874,
      "باهي": 7875,
      "ونيا": 7876,
      "الجي": 7877,
      "تحدث": 7878,
      "كافي": 7879,
      "العقل": 7880,
      "العجزة": 7881,
      "نتزوج": 7882,
      "ويسكن": 7883,
      "والتوفيق": 7884,
      "التواضع": 7885,
      "الأصل": 7886,
      "يوفقو": 7887,
      "wala": 7888,
      "nass": 7889,
      "عوة": 7890,
      "المحبة": 7891,
      "يستطيع": 7892,
      "عملت": 7893,
      "زعفانة": 7894,
      "dirou": 7895,
      "home": 7896,
      "pres": 7897,
      "مشتركة": 7898,
      "الجامع": 7899,
      "واجمل": 7900,
      "خفيفة": 7901,
      "المصطفى": 7902,
      "يقتلني": 7903,
      "نبغيكم": 7904,
      "ترول": 7905,
      "موالف": 7906,
      "music": 7907,
      "الغيرة": 7908,
      "نقارع": 7909,
      "mrc": 7910,
      "استفدت": 7911,
      "حفضك": 7912,
      "وثائقي": 7913,
      "42": 7914,
      "Ab": 7915,
      "kri": 7916,
      "work": 7917,
      "أرد": 7918,
      "اعوذ": 7919,
      "بسا": 7920,
      "تخي": 7921,
      "حسان": 7922,
      "ذنو": 7923,
      "زف": 7924,
      "شهداء": 7925,
      "ضار": 7926,
      "طالع": 7927,
      "عطي": 7928,
      "عقوبة": 7929,
      "قوت": 7930,
      "لعاشور": 7931,
      "مقو": 7932,
      "نخلي": 7933,
      "نقولها": 7934,
      "وست": 7935,
      "وتحياتي": 7936,
      "وهاش": 7937,
      "يقا": 7938,
      "يخل": 7939,
      "ياد": 7940,
      "وافتخر": 7941,
      "باست": 7942,
      "المطار": 7943,
      "علمي": 7944,
      "تات": 7945,
      "شافو": 7946,
      "خوباي": 7947,
      "تيفي": 7948,
      "العالي": 7949,
      "قادم": 7950,
      "نتواصل": 7951,
      "تعنا": 7952,
      "يتني": 7953,
      "غيرها": 7954,
      "سيال": 7955,
      "ong": 7956,
      "أنني": 7957,
      "النق": 7958,
      "روحه": 7959,
      "ابت": 7960,
      "كرماء": 7961,
      "يلزم": 7962,
      "khra": 7963,
      "بليس": 7964,
      "غيب": 7965,
      "rien": 7966,
      "الطبخ": 7967,
      "fais": 7968,
      "وَمَا": 7969,
      "وَهُوَ": 7970,
      "جعني": 7971,
      "وقتك": 7972,
      "فلوقر": 7973,
      "وحدهم": 7974,
      "اخوة": 7975,
      "اخواني": 7976,
      "قصف": 7977,
      "قتلوني": 7978,
      "عبدالباسط": 7979,
      "دائم": 7980,
      "mili": 7981,
      "خدمتك": 7982,
      "بِهِ": 7983,
      "حسبت": 7984,
      "jib": 7985,
      "شرفت": 7986,
      "Saha": 7987,
      "الفندق": 7988,
      "الاشياء": 7989,
      "كليت": 7990,
      "الصالحين": 7991,
      "معروفين": 7992,
      "مزاب": 7993,
      "يأتي": 7994,
      "وجزاكم": 7995,
      "مجهوداتك": 7996,
      "ناجحة": 7997,
      "après": 7998,
      "الَّذِينَ": 7999
    },
    "merges": [
      [
        "ا",
        "ل"
      ],
      [
        "ا",
        "ن"
      ],
      [
        "ف",
        "ي"
      ],
      [
        "ل",
        "ه"
      ],
      [
        "ل",
        "ي"
      ],
      [
        "ل",
        "ا"
      ],
      [
        "ن",
        "ا"
      ],
      [
        "ال",
        "له"
      ],
      [
        "ي",
        "ا"
      ],
      [
        "ب",
        "ي"
      ],
      [
        "م",
        "ا"
      ],
      [
        "ر",
        "ا"
      ],
      [
        "د",
        "ي"
      ],
      [
        "م",
        "ن"
      ],
      [
        "و",
        "ا"
      ],
      [
        "ه",
        "ا"
      ],
      [
        "ر",
        "ي"
      ],
      [
        "ب",
        "ا"
      ],
      [
        "و",
        "ن"
      ],
      [
        "ي",
        "ر"
      ],
      [
        "ي",
        "ن"
      ],
      [
        "ال",
        "م"
      ],
      [
        "ع",
        "ل"
      ],
      [
        "ك",
        "م"
      ],
      [
        "ت",
        "ا"
      ],
      [
        "ر",
        "بي"
      ],
      [
        "ز",
        "ا"
      ],
      [
        "ش",
        "ا"
      ],
      [
        "ع",
        "ا"
      ],
      [
        "ر",
        "و"
      ],
      [
        "و",
        "ل"
      ],
      [
        "ت",
        "و"
      ],
      [
        "و",
        "ر"
      ],
      [
        "عل",
        "ى"
      ],
      [
        "خ",
        "و"
      ],
      [
        "ي",
        "ة"
      ],
      [
        "ال",
        "ج"
      ],
      [
        "ر",
        "ك"
      ],
      [
        "د",
        "ا"
      ],
      [
        "ص",
        "ح"
      ],
      [
        "ه",
        "م"
      ],
      [
        "ي",
        "و"
      ],
      [
        "س",
        "ل"
      ],
      [
        "ك",
        "ي"
      ],
      [
        "ح",
        "م"
      ],
      [
        "ع",
        "لي"
      ],
      [
        "ك",
        "ل"
      ],
      [
        "م",
        "ي"
      ],
      [
        "ه",
        "ه"
      ],
      [
        "ف",
        "ر"
      ],
      [
        "ت",
        "ي"
      ],
      [
        "ن",
        "ي"
      ],
      [
        "ت",
        "ح"
      ],
      [
        "ك",
        "ا"
      ],
      [
        "ال",
        "ع"
      ],
      [
        "ان",
        "ا"
      ],
      [
        "ي",
        "ح"
      ],
      [
        "ل",
        "و"
      ],
      [
        "ال",
        "ح"
      ],
      [
        "ج",
        "ا"
      ],
      [
        "ال",
        "ا"
      ],
      [
        "م",
        "ع"
      ],
      [
        "ق",
        "ا"
      ],
      [
        "ر",
        "ب"
      ],
      [
        "خو",
        "يا"
      ],
      [
        "شا",
        "ء"
      ],
      [
        "زا",
        "ئ"
      ],
      [
        "ن",
        "ت"
      ],
      [
        "ل",
        "ك"
      ],
      [
        "س",
        "ت"
      ],
      [
        "ي",
        "د"
      ],
      [
        "o",
        "u"
      ],
      [
        "ر",
        "ة"
      ],
      [
        "ع",
        "ن"
      ],
      [
        "ذ",
        "ا"
      ],
      [
        "ت",
        "ك"
      ],
      [
        "h",
        "a"
      ],
      [
        "ب",
        "ال"
      ],
      [
        "ب",
        "لا"
      ],
      [
        "ت",
        "ع"
      ],
      [
        "و",
        "ي"
      ],
      [
        "ش",
        "ك"
      ],
      [
        "و",
        "ال"
      ],
      [
        "ان",
        "ي"
      ],
      [
        "دي",
        "و"
      ],
      [
        "ي",
        "ك"
      ],
      [
        "م",
        "ة"
      ],
      [
        "تا",
        "ع"
      ],
      [
        "با",
        "رك"
      ],
      [
        "l",
        "a"
      ],
      [
        "ي",
        "ت"
      ],
      [
        "الج",
        "زائ"
      ],
      [
        "ي",
        "ع"
      ],
      [
        "م",
        "و"
      ],
      [
        "و",
        "الله"
      ],
      [
        "ب",
        "ل"
      ],
      [
        "ف",
        "ا"
      ],
      [
        "ل",
        "ق"
      ],
      [
        "س",
        "ا"
      ],
      [
        "ب",
        "ع"
      ],
      [
        "و",
        "لا"
      ],
      [
        "ش",
        "و"
      ],
      [
        "في",
        "ديو"
      ],
      [
        "ش",
        "ي"
      ],
      [
        "ه",
        "و"
      ],
      [
        "ف",
        "ض"
      ],
      [
        "ف",
        "ق"
      ],
      [
        "ك",
        "ان"
      ],
      [
        "r",
        "a"
      ],
      [
        "و",
        "م"
      ],
      [
        "د",
        "ة"
      ],
      [
        "غ",
        "ير"
      ],
      [
        "م",
        "ال"
      ],
      [
        "m",
        "a"
      ],
      [
        "ب",
        "ر"
      ],
      [
        "م",
        "ل"
      ],
      [
        "ح",
        "ت"
      ],
      [
        "خ",
        "ي"
      ],
      [
        "س",
        "ي"
      ],
      [
        "ر",
        "ف"
      ],
      [
        "ص",
        "ل"
      ],
      [
        "e",
        "s"
      ],
      [
        "ا",
        "و"
      ],
      [
        "د",
        "ر"
      ],
      [
        "ح",
        "ك"
      ],
      [
        "ن",
        "و"
      ],
      [
        "ب",
        "ة"
      ],
      [
        "الجزائ",
        "ر"
      ],
      [
        "ب",
        "و"
      ],
      [
        "o",
        "n"
      ],
      [
        "ل",
        "ل"
      ],
      [
        "ه",
        "ذا"
      ],
      [
        "ت",
        "ق"
      ],
      [
        "د",
        "و"
      ],
      [
        "ح",
        "ا"
      ],
      [
        "ال",
        "ق"
      ],
      [
        "دي",
        "ر"
      ],
      [
        "ج",
        "وا"
      ],
      [
        "ع",
        "ة"
      ],
      [
        "ر",
        "ج"
      ],
      [
        "c",
        "h"
      ],
      [
        "i",
        "n"
      ],
      [
        "س",
        "م"
      ],
      [
        "ر",
        "م"
      ],
      [
        "لا",
        "م"
      ],
      [
        "ال",
        "ك"
      ],
      [
        "ير",
        "حم"
      ],
      [
        "ل",
        "ة"
      ],
      [
        "ف",
        "و"
      ],
      [
        "فر",
        "ج"
      ],
      [
        "م",
        "ر"
      ],
      [
        "ال",
        "ت"
      ],
      [
        "ا",
        "ح"
      ],
      [
        "ف",
        "ظ"
      ],
      [
        "ي",
        "ق"
      ],
      [
        "ال",
        "س"
      ],
      [
        "را",
        "ك"
      ],
      [
        "جوا",
        "د"
      ],
      [
        "حم",
        "د"
      ],
      [
        "e",
        "n"
      ],
      [
        "t",
        "a"
      ],
      [
        "ان",
        "ت"
      ],
      [
        "م",
        "ت"
      ],
      [
        "ب",
        "زا"
      ],
      [
        "ي",
        "ش"
      ],
      [
        "عن",
        "د"
      ],
      [
        "خ",
        "ير"
      ],
      [
        "س",
        "ن"
      ],
      [
        "ه",
        "ي"
      ],
      [
        "ال",
        "أ"
      ],
      [
        "ج",
        "ي"
      ],
      [
        "ج",
        "ب"
      ],
      [
        "فض",
        "ل"
      ],
      [
        "ح",
        "د"
      ],
      [
        "أ",
        "ن"
      ],
      [
        "ج",
        "مال"
      ],
      [
        "ض",
        "حك"
      ],
      [
        "ال",
        "ش"
      ],
      [
        "a",
        "n"
      ],
      [
        "ع",
        "لا"
      ],
      [
        "نا",
        "س"
      ],
      [
        "يح",
        "فظ"
      ],
      [
        "م",
        "ث"
      ],
      [
        "ه",
        "ل"
      ],
      [
        "ن",
        "ح"
      ],
      [
        "س",
        "ك"
      ],
      [
        "l",
        "i"
      ],
      [
        "e",
        "r"
      ],
      [
        "y",
        "a"
      ],
      [
        "عا",
        "ش"
      ],
      [
        "ال",
        "ي"
      ],
      [
        "ل",
        "م"
      ],
      [
        "ض",
        "ان"
      ],
      [
        "سل",
        "سل"
      ],
      [
        "ب",
        "صح"
      ],
      [
        "بزا",
        "ف"
      ],
      [
        "م",
        "عا"
      ],
      [
        "خ",
        "ا"
      ],
      [
        "سل",
        "م"
      ],
      [
        "ط",
        "ي"
      ],
      [
        "ي",
        "بارك"
      ],
      [
        "في",
        "ه"
      ],
      [
        "رم",
        "ضان"
      ],
      [
        "ق",
        "ل"
      ],
      [
        "س",
        "ب"
      ],
      [
        "يو",
        "فق"
      ],
      [
        "بلا",
        "د"
      ],
      [
        "ال",
        "صح"
      ],
      [
        "ا",
        "م"
      ],
      [
        "شك",
        "ون"
      ],
      [
        "ز",
        "ي"
      ],
      [
        "ل",
        "ع"
      ],
      [
        "شو",
        "ف"
      ],
      [
        "ب",
        "د"
      ],
      [
        "ما",
        "ت"
      ],
      [
        "r",
        "e"
      ],
      [
        "ق",
        "ت"
      ],
      [
        "و",
        "ج"
      ],
      [
        "ع",
        "م"
      ],
      [
        "ح",
        "ة"
      ],
      [
        "في",
        "ك"
      ],
      [
        "و",
        "لي"
      ],
      [
        "ط",
        "ا"
      ],
      [
        "ر",
        "اني"
      ],
      [
        "ي",
        "م"
      ],
      [
        "ال",
        "ن"
      ],
      [
        "ه",
        "ذ"
      ],
      [
        "l",
        "e"
      ],
      [
        "و",
        "ت"
      ],
      [
        "ال",
        "ف"
      ],
      [
        "م",
        "ح"
      ],
      [
        "ون",
        "ي"
      ],
      [
        "ال",
        "ب"
      ],
      [
        "خ",
        "ل"
      ],
      [
        "i",
        "s"
      ],
      [
        "م",
        "لي"
      ],
      [
        "شك",
        "را"
      ],
      [
        "د",
        "ق"
      ],
      [
        "بي",
        "ب"
      ],
      [
        "إ",
        "ن"
      ],
      [
        "ال",
        "و"
      ],
      [
        "علي",
        "ه"
      ],
      [
        "د",
        "م"
      ],
      [
        "رو",
        "ح"
      ],
      [
        "ت",
        "ش"
      ],
      [
        "ك",
        "ث"
      ],
      [
        "ت",
        "ه"
      ],
      [
        "ل",
        "ح"
      ],
      [
        "w",
        "a"
      ],
      [
        "ا",
        "ب"
      ],
      [
        "ك",
        "ن"
      ],
      [
        "ال",
        "ص"
      ],
      [
        "ن",
        "ة"
      ],
      [
        "d",
        "e"
      ],
      [
        "n",
        "a"
      ],
      [
        "تو",
        "ى"
      ],
      [
        "علي",
        "ك"
      ],
      [
        "ري",
        "ة"
      ],
      [
        "ق",
        "ة"
      ],
      [
        "يوفق",
        "ك"
      ],
      [
        "و",
        "د"
      ],
      [
        "b",
        "a"
      ],
      [
        "را",
        "ه"
      ],
      [
        "م",
        "حمد"
      ],
      [
        "خ",
        "ر"
      ],
      [
        "ال",
        "د"
      ],
      [
        "t",
        "i"
      ],
      [
        "حت",
        "ى"
      ],
      [
        "وا",
        "حد"
      ],
      [
        "نو",
        "ري"
      ],
      [
        "في",
        "ها"
      ],
      [
        "لق",
        "ة"
      ],
      [
        "ب",
        "ك"
      ],
      [
        "b",
        "i"
      ],
      [
        "e",
        "l"
      ],
      [
        "ا",
        "ي"
      ],
      [
        "ز",
        "يد"
      ],
      [
        "ق",
        "و"
      ],
      [
        "ت",
        "ني"
      ],
      [
        "م",
        "ش"
      ],
      [
        "وا",
        "ش"
      ],
      [
        "الله",
        "م"
      ],
      [
        "ا",
        "ر"
      ],
      [
        "ا",
        "خي"
      ],
      [
        "ج",
        "ة"
      ],
      [
        "تح",
        "يا"
      ],
      [
        "ك",
        "ر"
      ],
      [
        "ب",
        "ه"
      ],
      [
        "ي",
        "س"
      ],
      [
        "ي",
        "ل"
      ],
      [
        "k",
        "h"
      ],
      [
        "ه",
        "نا"
      ],
      [
        "s",
        "a"
      ],
      [
        "ر",
        "ح"
      ],
      [
        "d",
        "i"
      ],
      [
        "و",
        "ش"
      ],
      [
        "o",
        "m"
      ],
      [
        "له",
        "ا"
      ],
      [
        "ال",
        "فيديو"
      ],
      [
        "يو",
        "س"
      ],
      [
        "ت",
        "س"
      ],
      [
        "يحفظ",
        "ك"
      ],
      [
        "ما",
        "شاء"
      ],
      [
        "را",
        "ئ"
      ],
      [
        "ن",
        "س"
      ],
      [
        "س",
        "لام"
      ],
      [
        "عاش",
        "ور"
      ],
      [
        "ا",
        "فضل"
      ],
      [
        "ب",
        "لي"
      ],
      [
        "ف",
        "ة"
      ],
      [
        "ط",
        "يك"
      ],
      [
        "ن",
        "ق"
      ],
      [
        "ل",
        "نا"
      ],
      [
        "الع",
        "الم"
      ],
      [
        "d",
        "a"
      ],
      [
        "في",
        "ق"
      ],
      [
        "م",
        "ان"
      ],
      [
        "ع",
        "د"
      ],
      [
        "و",
        "ح"
      ],
      [
        "س",
        "ان"
      ],
      [
        "الصح",
        "ة"
      ],
      [
        "ل",
        "ب"
      ],
      [
        "ن",
        "ف"
      ],
      [
        "ج",
        "زائ"
      ],
      [
        "كي",
        "ما"
      ],
      [
        "و",
        "ين"
      ],
      [
        "ت",
        "ب"
      ],
      [
        "ع",
        "ب"
      ],
      [
        "خ",
        "بيب"
      ],
      [
        "ن",
        "ع"
      ],
      [
        "ق",
        "ي"
      ],
      [
        "ي",
        "خ"
      ],
      [
        "ت",
        "نا"
      ],
      [
        "تو",
        "فيق"
      ],
      [
        "ه",
        "د"
      ],
      [
        "ل",
        "له"
      ],
      [
        "يو",
        "م"
      ],
      [
        "t",
        "e"
      ],
      [
        "ت",
        "ها"
      ],
      [
        "س",
        "و"
      ],
      [
        "ص",
        "ة"
      ],
      [
        "غ",
        "ي"
      ],
      [
        "با",
        "ب"
      ],
      [
        "دي",
        "رو"
      ],
      [
        "ع",
        "جب"
      ],
      [
        "ال",
        "عا"
      ],
      [
        "ع",
        "ي"
      ],
      [
        "ر",
        "س"
      ],
      [
        "ك",
        "نت"
      ],
      [
        "غ",
        "رب"
      ],
      [
        "با",
        "ش"
      ],
      [
        "ك",
        "و"
      ],
      [
        "كث",
        "ر"
      ],
      [
        "أ",
        "نا"
      ],
      [
        "ع",
        "و"
      ],
      [
        "يع",
        "طيك"
      ],
      [
        "دي",
        "ن"
      ],
      [
        "j",
        "a"
      ],
      [
        "ب",
        "رك"
      ],
      [
        "r",
        "i"
      ],
      [
        "خ",
        "ص"
      ],
      [
        "ن",
        "تا"
      ],
      [
        "ا",
        "ت"
      ],
      [
        "كا",
        "ين"
      ],
      [
        "la",
        "h"
      ],
      [
        "جا",
        "م"
      ],
      [
        "بي",
        "ن"
      ],
      [
        "ه",
        "ر"
      ],
      [
        "علي",
        "كم"
      ],
      [
        "تح",
        "ية"
      ],
      [
        "ح",
        "ان"
      ],
      [
        "e",
        "t"
      ],
      [
        "ف",
        "ت"
      ],
      [
        "ز",
        "ال"
      ],
      [
        "ذ",
        "ي"
      ],
      [
        "ج",
        "مي"
      ],
      [
        "ال",
        "ط"
      ],
      [
        "ا",
        "ع"
      ],
      [
        "ف",
        "هم"
      ],
      [
        "معا",
        "ك"
      ],
      [
        "سلسل",
        "ة"
      ],
      [
        "م",
        "ج"
      ],
      [
        "ي",
        "ه"
      ],
      [
        "ال",
        "ه"
      ],
      [
        "نت",
        "فرج"
      ],
      [
        "بع",
        "د"
      ],
      [
        "ق",
        "بل"
      ],
      [
        "را",
        "ح"
      ],
      [
        "م",
        "س"
      ],
      [
        "ن",
        "ش"
      ],
      [
        "m",
        "e"
      ],
      [
        "ج",
        "د"
      ],
      [
        "a",
        "l"
      ],
      [
        "غ",
        "ا"
      ],
      [
        "كا",
        "مل"
      ],
      [
        "و",
        "س"
      ],
      [
        "عل",
        "م"
      ],
      [
        "يا",
        "رب"
      ],
      [
        "خ",
        "او"
      ],
      [
        "c",
        "ha"
      ],
      [
        "q",
        "u"
      ],
      [
        "ح",
        "ال"
      ],
      [
        "ص",
        "الح"
      ],
      [
        "ت",
        "ت"
      ],
      [
        "ل",
        "ى"
      ],
      [
        "مث",
        "ل"
      ],
      [
        "ا",
        "ج"
      ],
      [
        "ال",
        "ث"
      ],
      [
        "و",
        "ع"
      ],
      [
        "ك",
        "ون"
      ],
      [
        "سب",
        "حان"
      ],
      [
        "مح",
        "توى"
      ],
      [
        "ف",
        "ل"
      ],
      [
        "عن",
        "دي"
      ],
      [
        "ال",
        "لي"
      ],
      [
        "و",
        "سلم"
      ],
      [
        "ق",
        "نا"
      ],
      [
        "n",
        "i"
      ],
      [
        "f",
        "i"
      ],
      [
        "را",
        "ت"
      ],
      [
        "رائ",
        "ع"
      ],
      [
        "ز",
        "ع"
      ],
      [
        "ما",
        "شي"
      ],
      [
        "o",
        "r"
      ],
      [
        "ال",
        "خ"
      ],
      [
        "ي",
        "ب"
      ],
      [
        "رو",
        "عة"
      ],
      [
        "ر",
        "ق"
      ],
      [
        "a",
        "r"
      ],
      [
        "لي",
        "ك"
      ],
      [
        "س",
        "ط"
      ],
      [
        "يت",
        "فرج"
      ],
      [
        "ب",
        "ط"
      ],
      [
        "ت",
        "ل"
      ],
      [
        "لك",
        "ن"
      ],
      [
        "ه",
        "دا"
      ],
      [
        "ا",
        "ست"
      ],
      [
        "ر",
        "انا"
      ],
      [
        "دا",
        "ر"
      ],
      [
        "ال",
        "ل"
      ],
      [
        "وا",
        "ت"
      ],
      [
        "n",
        "e"
      ],
      [
        "ال",
        "ناس"
      ],
      [
        "ز",
        "م"
      ],
      [
        "بلا",
        "دي"
      ],
      [
        "ت",
        "م"
      ],
      [
        "ر",
        "ض"
      ],
      [
        "ال",
        "ى"
      ],
      [
        "ب",
        "س"
      ],
      [
        "ن",
        "شوف"
      ],
      [
        "ا",
        "ك"
      ],
      [
        "l",
        "es"
      ],
      [
        "ب",
        "ن"
      ],
      [
        "l",
        "o"
      ],
      [
        "ح",
        "نا"
      ],
      [
        "ت",
        "ص"
      ],
      [
        "ط",
        "ة"
      ],
      [
        "ا",
        "خ"
      ],
      [
        "هذ",
        "ه"
      ],
      [
        "ب",
        "را"
      ],
      [
        "الجزائ",
        "ري"
      ],
      [
        "ال",
        "با"
      ],
      [
        "r",
        "o"
      ],
      [
        "v",
        "i"
      ],
      [
        "مر",
        "ح"
      ],
      [
        "ا",
        "ف"
      ],
      [
        "ق",
        "ال"
      ],
      [
        "ها",
        "د"
      ],
      [
        "كم",
        "ل"
      ],
      [
        "و",
        "ك"
      ],
      [
        "را",
        "ء"
      ],
      [
        "م",
        "م"
      ],
      [
        "ح",
        "لقة"
      ],
      [
        "م",
        "نا"
      ],
      [
        "أ",
        "خي"
      ],
      [
        "ز",
        "وج"
      ],
      [
        "ها",
        "ت"
      ],
      [
        "عل",
        "و"
      ],
      [
        "بي",
        "ك"
      ],
      [
        "من",
        "ى"
      ],
      [
        "شا",
        "م"
      ],
      [
        "ال",
        "إ"
      ],
      [
        "حا",
        "جة"
      ],
      [
        "ربي",
        "ة"
      ],
      [
        "و",
        "ب"
      ],
      [
        "ال",
        "نوري"
      ],
      [
        "f",
        "a"
      ],
      [
        "رو",
        "س"
      ],
      [
        "ظ",
        "يم"
      ],
      [
        "يا",
        "ت"
      ],
      [
        "ي",
        "ج"
      ],
      [
        "أ",
        "ح"
      ],
      [
        "يك",
        "ون"
      ],
      [
        "ب",
        "ح"
      ],
      [
        "ت",
        "خ"
      ],
      [
        "أ",
        "و"
      ],
      [
        "ط",
        "ل"
      ],
      [
        "اح",
        "سن"
      ],
      [
        "م",
        "سلسل"
      ],
      [
        "ت",
        "ر"
      ],
      [
        "ج",
        "ل"
      ],
      [
        "i",
        "t"
      ],
      [
        "عند",
        "ك"
      ],
      [
        "وا",
        "صل"
      ],
      [
        "عاش",
        "ر"
      ],
      [
        "ري",
        "ن"
      ],
      [
        "ّ",
        "َ"
      ],
      [
        "م",
        "ين"
      ],
      [
        "ا",
        "د"
      ],
      [
        "بال",
        "توفيق"
      ],
      [
        "م",
        "ق"
      ],
      [
        "را",
        "هم"
      ],
      [
        "يح",
        "فض"
      ],
      [
        "i",
        "l"
      ],
      [
        "مرح",
        "با"
      ],
      [
        "a",
        "s"
      ],
      [
        "غ",
        "فر"
      ],
      [
        "و",
        "َ"
      ],
      [
        "ا",
        "س"
      ],
      [
        "لو",
        "د"
      ],
      [
        "ال",
        "ر"
      ],
      [
        "س",
        "يد"
      ],
      [
        "ول",
        "و"
      ],
      [
        "تا",
        "بع"
      ],
      [
        "أ",
        "فضل"
      ],
      [
        "وا",
        "ح"
      ],
      [
        "ك",
        "بي"
      ],
      [
        "بلاد",
        "نا"
      ],
      [
        "ع",
        "رف"
      ],
      [
        "ري",
        "ق"
      ],
      [
        "علا",
        "ه"
      ],
      [
        "ص",
        "وي"
      ],
      [
        "ل",
        "َ"
      ],
      [
        "ال",
        "ز"
      ],
      [
        "الع",
        "ظيم"
      ],
      [
        "خ",
        "لا"
      ],
      [
        "h",
        "e"
      ],
      [
        "تاع",
        "ك"
      ],
      [
        "جزائ",
        "ري"
      ],
      [
        "ج",
        "ع"
      ],
      [
        "تك",
        "ون"
      ],
      [
        "بل",
        "د"
      ],
      [
        "الم",
        "و"
      ],
      [
        "صل",
        "ى"
      ],
      [
        "م",
        "رة"
      ],
      [
        "كي",
        "ف"
      ],
      [
        "ق",
        "ى"
      ],
      [
        "ت",
        "ن"
      ],
      [
        "كي",
        "فا"
      ],
      [
        "لا",
        "زم"
      ],
      [
        "ي",
        "ف"
      ],
      [
        "ط",
        "ر"
      ],
      [
        "ه",
        "شام"
      ],
      [
        "ou",
        "r"
      ],
      [
        "مي",
        "لود"
      ],
      [
        "ح",
        "يا"
      ],
      [
        "ض",
        "ا"
      ],
      [
        "تا",
        "هل"
      ],
      [
        "ح",
        "بي"
      ],
      [
        "ري",
        "م"
      ],
      [
        "ص",
        "ا"
      ],
      [
        "س",
        "ة"
      ],
      [
        "ال",
        "عاشر"
      ],
      [
        "ص",
        "اح"
      ],
      [
        "يرحم",
        "ك"
      ],
      [
        "خاو",
        "تي"
      ],
      [
        "ا",
        "سم"
      ],
      [
        "م",
        "كان"
      ],
      [
        "t",
        "o"
      ],
      [
        "ح",
        "ش"
      ],
      [
        "و",
        "ق"
      ],
      [
        "را",
        "م"
      ],
      [
        "دي",
        "ك"
      ],
      [
        "صوي",
        "لح"
      ],
      [
        "k",
        "a"
      ],
      [
        "د",
        "خل"
      ],
      [
        "قا",
        "ت"
      ],
      [
        "i",
        "r"
      ],
      [
        "en",
        "t"
      ],
      [
        "رو",
        "ع"
      ],
      [
        "ال",
        "غ"
      ],
      [
        "كا",
        "ش"
      ],
      [
        "دق",
        "يوس"
      ],
      [
        "h",
        "h"
      ],
      [
        "يع",
        "طي"
      ],
      [
        "الح",
        "لقة"
      ],
      [
        "ز",
        "و"
      ],
      [
        "ال",
        "حمد"
      ],
      [
        "ي",
        "دير"
      ],
      [
        "ج",
        "دي"
      ],
      [
        "تحيا",
        "تي"
      ],
      [
        "ت",
        "رك"
      ],
      [
        "له",
        "م"
      ],
      [
        "و",
        "أ"
      ],
      [
        "ين",
        "ة"
      ],
      [
        "لا",
        "ت"
      ],
      [
        "ج",
        "دا"
      ],
      [
        "ط",
        "ور"
      ],
      [
        "تا",
        "ج"
      ],
      [
        "ف",
        "ال"
      ],
      [
        "مو",
        "ت"
      ],
      [
        "ط",
        "ول"
      ],
      [
        "نف",
        "س"
      ],
      [
        "زا",
        "ير"
      ],
      [
        "k",
        "i"
      ],
      [
        "ب",
        "ت"
      ],
      [
        "ن",
        "سا"
      ],
      [
        "ف",
        "لو"
      ],
      [
        "ها",
        "ر"
      ],
      [
        "خ",
        "رج"
      ],
      [
        "ا",
        "ه"
      ],
      [
        "يق",
        "ة"
      ],
      [
        "ال",
        "خير"
      ],
      [
        "ان",
        "شاء"
      ],
      [
        "ري",
        "كا"
      ],
      [
        "ز",
        "ء"
      ],
      [
        "ان",
        "سان"
      ],
      [
        "ع",
        "مي"
      ],
      [
        "تو",
        "ب"
      ],
      [
        "u",
        "r"
      ],
      [
        "إ",
        "لى"
      ],
      [
        "زي",
        "ز"
      ],
      [
        "ع",
        "ين"
      ],
      [
        "عا",
        "م"
      ],
      [
        "ع",
        "يد"
      ],
      [
        "الم",
        "ح"
      ],
      [
        "ت",
        "روس"
      ],
      [
        "و",
        "ير"
      ],
      [
        "c",
        "e"
      ],
      [
        "ج",
        "و"
      ],
      [
        "يو",
        "ت"
      ],
      [
        "ش",
        "باب"
      ],
      [
        "ملي",
        "ون"
      ],
      [
        "ع",
        "ر"
      ],
      [
        "ا",
        "ش"
      ],
      [
        "م",
        "زال"
      ],
      [
        "جا",
        "ح"
      ],
      [
        "علي",
        "نا"
      ],
      [
        "ور",
        "ة"
      ],
      [
        "ول",
        "ة"
      ],
      [
        "ب",
        "دا"
      ],
      [
        "هذ",
        "ي"
      ],
      [
        "ل",
        "ان"
      ],
      [
        "الم",
        "غرب"
      ],
      [
        "ق",
        "د"
      ],
      [
        "س",
        "ر"
      ],
      [
        "الس",
        "لام"
      ],
      [
        "و",
        "ربي"
      ],
      [
        "لا",
        "يك"
      ],
      [
        "م",
        "تع"
      ],
      [
        "ت",
        "كم"
      ],
      [
        "غ",
        "ل"
      ],
      [
        "ن",
        "ان"
      ],
      [
        "s",
        "e"
      ],
      [
        "خ",
        "لي"
      ],
      [
        "ال",
        "تي"
      ],
      [
        "ولا",
        "د"
      ],
      [
        "m",
        "o"
      ],
      [
        "ل",
        "ف"
      ],
      [
        "ن",
        "ية"
      ],
      [
        "ها",
        "ذ"
      ],
      [
        "م",
        "شاء"
      ],
      [
        "عا",
        "ود"
      ],
      [
        "شا",
        "بة"
      ],
      [
        "ا",
        "ول"
      ],
      [
        "ما",
        "م"
      ],
      [
        "ل",
        "ت"
      ],
      [
        "ش",
        "ر"
      ],
      [
        "ش",
        "حال"
      ],
      [
        "ص",
        "ر"
      ],
      [
        "يوت",
        "يو"
      ],
      [
        "ح",
        "ق"
      ],
      [
        "شو",
        "فو"
      ],
      [
        "ش",
        "ف"
      ],
      [
        "عجب",
        "تني"
      ],
      [
        "s",
        "i"
      ],
      [
        "ن",
        "د"
      ],
      [
        "الج",
        "نة"
      ],
      [
        "ول",
        "د"
      ],
      [
        "سيد",
        "نا"
      ],
      [
        "بي",
        "ة"
      ],
      [
        "العالم",
        "ين"
      ],
      [
        "ال",
        "ذي"
      ],
      [
        "م",
        "ه"
      ],
      [
        "علا",
        "ش"
      ],
      [
        "يعطي",
        "كم"
      ],
      [
        "ب",
        "نا"
      ],
      [
        "ط",
        "و"
      ],
      [
        "ن",
        "ست"
      ],
      [
        "تق",
        "ول"
      ],
      [
        "ن",
        "تاع"
      ],
      [
        "ق",
        "ول"
      ],
      [
        "دي",
        "ة"
      ],
      [
        "نح",
        "ب"
      ],
      [
        "تو",
        "حش"
      ],
      [
        "ف",
        "ور"
      ],
      [
        "قا",
        "دة"
      ],
      [
        "أ",
        "س"
      ],
      [
        "شي",
        "ء"
      ],
      [
        "تس",
        "تاهل"
      ],
      [
        "ك",
        "ما"
      ],
      [
        "أ",
        "نت"
      ],
      [
        "و",
        "حد"
      ],
      [
        "الح",
        "ق"
      ],
      [
        "ل",
        "كم"
      ],
      [
        "صح",
        "ا"
      ],
      [
        "l",
        "h"
      ],
      [
        "ن",
        "ص"
      ],
      [
        "in",
        "g"
      ],
      [
        "يحفظ",
        "كم"
      ],
      [
        "يرحم",
        "و"
      ],
      [
        "b",
        "e"
      ],
      [
        "م",
        "لا"
      ],
      [
        "سلم",
        "ين"
      ],
      [
        "ح",
        "ل"
      ],
      [
        "رو",
        "ت"
      ],
      [
        "es",
        "t"
      ],
      [
        "تع",
        "رف"
      ],
      [
        "ط",
        "لع"
      ],
      [
        "يا",
        "خويا"
      ],
      [
        "و",
        "الم"
      ],
      [
        "أ",
        "ج"
      ],
      [
        "كان",
        "ت"
      ],
      [
        "أ",
        "م"
      ],
      [
        "علو",
        "مات"
      ],
      [
        "v",
        "e"
      ],
      [
        "قا",
        "ع"
      ],
      [
        "أ",
        "ي"
      ],
      [
        "من",
        "ي"
      ],
      [
        "علي",
        "ها"
      ],
      [
        "kh",
        "o"
      ],
      [
        "a",
        "k"
      ],
      [
        "ولا",
        "ية"
      ],
      [
        "ه",
        "ك"
      ],
      [
        "ز",
        "ق"
      ],
      [
        "qu",
        "e"
      ],
      [
        "س",
        "يا"
      ],
      [
        "g",
        "h"
      ],
      [
        "َ",
        "ا"
      ],
      [
        "فق",
        "ط"
      ],
      [
        "ال",
        "يوم"
      ],
      [
        "رس",
        "ول"
      ],
      [
        "ب",
        "ها"
      ],
      [
        "ال",
        "ة"
      ],
      [
        "ti",
        "on"
      ],
      [
        "ر",
        "حم"
      ],
      [
        "م",
        "را"
      ],
      [
        "خ",
        "ط"
      ],
      [
        "ا",
        "خو"
      ],
      [
        "ت",
        "ف"
      ],
      [
        "ح",
        "ي"
      ],
      [
        "ين",
        "ي"
      ],
      [
        "خ",
        "د"
      ],
      [
        "و",
        "ما"
      ],
      [
        "ق",
        "ص"
      ],
      [
        "ق",
        "لي"
      ],
      [
        "يا",
        "م"
      ],
      [
        "ير",
        "ة"
      ],
      [
        "ن",
        "ب"
      ],
      [
        "ح",
        "س"
      ],
      [
        "ق",
        "ري"
      ],
      [
        "ن",
        "ه"
      ],
      [
        "ب",
        "ش"
      ],
      [
        "ن",
        "يا"
      ],
      [
        "ب",
        "الله"
      ],
      [
        "ق",
        "ع"
      ],
      [
        "لا",
        "ة"
      ],
      [
        "ل",
        "ما"
      ],
      [
        "w",
        "e"
      ],
      [
        "اب",
        "وني"
      ],
      [
        "ب",
        "سك"
      ],
      [
        "وال",
        "و"
      ],
      [
        "لي",
        "ن"
      ],
      [
        "قت",
        "ل"
      ],
      [
        "م",
        "ست"
      ],
      [
        "إ",
        "لا"
      ],
      [
        "ـ",
        "ـ"
      ],
      [
        "يحفض",
        "ك"
      ],
      [
        "ملي",
        "ح"
      ],
      [
        "ش",
        "خص"
      ],
      [
        "قو",
        "ة"
      ],
      [
        "با",
        "ت"
      ],
      [
        "b",
        "on"
      ],
      [
        "ا",
        "ذا"
      ],
      [
        "لو",
        "كان"
      ],
      [
        "يع",
        "ني"
      ],
      [
        "الش",
        "عب"
      ],
      [
        "را",
        "هو"
      ],
      [
        "م",
        "غ"
      ],
      [
        "ا",
        "ص"
      ],
      [
        "a",
        "u"
      ],
      [
        "v",
        "o"
      ],
      [
        "ن",
        "ور"
      ],
      [
        "عا",
        "ون"
      ],
      [
        "a",
        "m"
      ],
      [
        "ف",
        "س"
      ],
      [
        "و",
        "ه"
      ],
      [
        "ي",
        "ص"
      ],
      [
        "را",
        "كم"
      ],
      [
        "را",
        "هي"
      ],
      [
        "j",
        "e"
      ],
      [
        "ش",
        "عب"
      ],
      [
        "ول",
        "ك"
      ],
      [
        "و",
        "من"
      ],
      [
        "با",
        "ر"
      ],
      [
        "و",
        "ان"
      ],
      [
        "ي",
        "ست"
      ],
      [
        "ي",
        "شا"
      ],
      [
        "سن",
        "ة"
      ],
      [
        "خ",
        "لو"
      ],
      [
        "ع",
        "ش"
      ],
      [
        "ج",
        "زا"
      ],
      [
        "م",
        "شي"
      ],
      [
        "عند",
        "نا"
      ],
      [
        "م",
        "تابع"
      ],
      [
        "ز",
        "ة"
      ],
      [
        "و",
        "انا"
      ],
      [
        "ن",
        "ى"
      ],
      [
        "ع",
        "مل"
      ],
      [
        "g",
        "e"
      ],
      [
        "م",
        "شا"
      ],
      [
        "الق",
        "مة"
      ],
      [
        "لي",
        "س"
      ],
      [
        "فو",
        "ور"
      ],
      [
        "ق",
        "ر"
      ],
      [
        "ب",
        "يا"
      ],
      [
        "ا",
        "كثر"
      ],
      [
        "ز",
        "ور"
      ],
      [
        "1",
        "0"
      ],
      [
        "ن",
        "بي"
      ],
      [
        "الع",
        "تروس"
      ],
      [
        "رج",
        "ع"
      ],
      [
        "فر",
        "ح"
      ],
      [
        "جب",
        "ني"
      ],
      [
        "ح",
        "ب"
      ],
      [
        "بع",
        "ض"
      ],
      [
        "م",
        "ك"
      ],
      [
        "ش",
        "فت"
      ],
      [
        "غ",
        "ة"
      ],
      [
        "ي",
        "ما"
      ],
      [
        "بزا",
        "اف"
      ],
      [
        "با",
        "ه"
      ],
      [
        "خا",
        "صة"
      ],
      [
        "ع",
        "بد"
      ],
      [
        "در",
        "ت"
      ],
      [
        "on",
        "t"
      ],
      [
        "بال",
        "ضحك"
      ],
      [
        "ف",
        "طور"
      ],
      [
        "الق",
        "ر"
      ],
      [
        "جي",
        "ب"
      ],
      [
        "كيفا",
        "ش"
      ],
      [
        "d",
        "é"
      ],
      [
        "م",
        "د"
      ],
      [
        "و",
        "ز"
      ],
      [
        "ج",
        "ر"
      ],
      [
        "ف",
        "ك"
      ],
      [
        "قل",
        "ت"
      ],
      [
        "جمي",
        "ع"
      ],
      [
        "برا",
        "فو"
      ],
      [
        "بي",
        "ه"
      ],
      [
        "ز",
        "ان"
      ],
      [
        "يح",
        "ب"
      ],
      [
        "ض",
        "رب"
      ],
      [
        "ال",
        "فر"
      ],
      [
        "ان",
        "و"
      ],
      [
        "ص",
        "لي"
      ],
      [
        "ِ",
        "ّ"
      ],
      [
        "ف",
        "ان"
      ],
      [
        "و",
        "قت"
      ],
      [
        "ال",
        "ما"
      ],
      [
        "ها",
        "ذي"
      ],
      [
        "دا",
        "ئ"
      ],
      [
        "في",
        "ة"
      ],
      [
        "ها",
        "دي"
      ],
      [
        "ر",
        "د"
      ],
      [
        "an",
        "a"
      ],
      [
        "ت",
        "ج"
      ],
      [
        "ب",
        "رو"
      ],
      [
        "ن",
        "دير"
      ],
      [
        "ه",
        "ُ"
      ],
      [
        "قل",
        "بي"
      ],
      [
        "في",
        "كم"
      ],
      [
        "z",
        "a"
      ],
      [
        "عجب",
        "ني"
      ],
      [
        "الج",
        "زء"
      ],
      [
        "ظ",
        "ر"
      ],
      [
        "ط",
        "ع"
      ],
      [
        "كل",
        "مة"
      ],
      [
        "با",
        "ك"
      ],
      [
        "ال",
        "من"
      ],
      [
        "ou",
        "s"
      ],
      [
        "ت",
        "اني"
      ],
      [
        "را",
        "حة"
      ],
      [
        "رو",
        "نا"
      ],
      [
        "ت",
        "فرج"
      ],
      [
        "ال",
        "في"
      ],
      [
        "جدي",
        "د"
      ],
      [
        "lo",
        "g"
      ],
      [
        "بال",
        "ي"
      ],
      [
        "بر",
        "نا"
      ],
      [
        "ون",
        "س"
      ],
      [
        "m",
        "ent"
      ],
      [
        "ت",
        "علي"
      ],
      [
        "َ",
        "ل"
      ],
      [
        "الم",
        "سلمين"
      ],
      [
        "n",
        "d"
      ],
      [
        "الس",
        "يا"
      ],
      [
        "ج",
        "ح"
      ],
      [
        "ف",
        "ري"
      ],
      [
        "ن",
        "دي"
      ],
      [
        "ا",
        "ق"
      ],
      [
        "ج",
        "يت"
      ],
      [
        "كل",
        "ش"
      ],
      [
        "و",
        "على"
      ],
      [
        "عن",
        "دو"
      ],
      [
        "اج",
        "مل"
      ],
      [
        "الجزائ",
        "رية"
      ],
      [
        "تو",
        "ما"
      ],
      [
        "ه",
        "ة"
      ],
      [
        "كا",
        "ر"
      ],
      [
        "كبي",
        "ر"
      ],
      [
        "h",
        "i"
      ],
      [
        "نع",
        "رف"
      ],
      [
        "ها",
        "تك"
      ],
      [
        "آ",
        "ن"
      ],
      [
        "ص",
        "ان"
      ],
      [
        "وا",
        "ر"
      ],
      [
        "ض",
        "ر"
      ],
      [
        "تح",
        "ق"
      ],
      [
        "k",
        "om"
      ],
      [
        "ch",
        "e"
      ],
      [
        "ي",
        "ط"
      ],
      [
        "ان",
        "ك"
      ],
      [
        "د",
        "ع"
      ],
      [
        "ص",
        "و"
      ],
      [
        "بو",
        "ك"
      ],
      [
        "ال",
        "رح"
      ],
      [
        "عا",
        "يش"
      ],
      [
        "يع",
        "رف"
      ],
      [
        "ن",
        "هار"
      ],
      [
        "u",
        "n"
      ],
      [
        "تا",
        "ري"
      ],
      [
        "شو",
        "ية"
      ],
      [
        "ra",
        "bi"
      ],
      [
        "الن",
        "جاح"
      ],
      [
        "ول",
        "كن"
      ],
      [
        "بصح",
        "تك"
      ],
      [
        "ق",
        "مة"
      ],
      [
        "مم",
        "كن"
      ],
      [
        "و",
        "صح"
      ],
      [
        "وا",
        "ه"
      ],
      [
        "حا",
        "ب"
      ],
      [
        "k",
        "ha"
      ],
      [
        "ول",
        "له"
      ],
      [
        "و",
        "في"
      ],
      [
        "خو",
        "تي"
      ],
      [
        "قنا",
        "ة"
      ],
      [
        "الم",
        "س"
      ],
      [
        "م",
        "ز"
      ],
      [
        "الم",
        "هم"
      ],
      [
        "ولي",
        "د"
      ],
      [
        "k",
        "ou"
      ],
      [
        "ع",
        "الم"
      ],
      [
[...]
